#version: 0.2
i n
t h
e d</w>
a n
s t
i t
e r
e a
c o
an d</w>
in g</w>
l o
r o
l e
r e
a t
w it
s h
wit h</w>
i s</w>
r a
l e</w>
l a
e r</w>
th e</w>
e s</w>
l i
r i
o n</w>
s i
th is</w>
a r
i n</w>
o u
o r
c h
e n
o f</w>
t t
t o</w>
u r
t i
l y</w>
s o
g h
f ro
t a
s u
i r
c u
e c
a n</w>
d e
a t</w>
a d
f o
a c
o n
s p
t s</w>
a l</w>
fro m</w>
b o
p p
st y
e s
i t</w>
a l
fo r</w>
c h</w>
e e
tt on</w>
e v
co m
m o
ea t
s s</w>
p o
t o
s le
u n
f or
e m
i l
b r
b le</w>
th at</w>
l in
so f
h i
s t</w>
gh t</w>
t ed</w>
re t
ur e</w>
co tton</w>
e t</w>
l ea
c e</w>
f f
ir t</w>
w a
l u
t er
s w
c k
le n
an d
sof t</w>
e l
f in
cu t</w>
v er
lo o
si l
e x
st ret
s h</w>
d er
c a
r in
sle ev
r u
d i
ou r</w>
l ed</w>
si g
b u
com for
n ec
th er</w>
f u
t w
co n
d s</w>
d e</w>
s k
la s
i c</w>
e le
p er
g e</w>
y our</w>
d re
m a
dre ss</w>
at ter
f a
sh irt</w>
st ri
sty le</w>
es e</w>
d a
o o
sig n
f lo
s e</w>
q u
s li
th ese</w>
i ght</w>
t y</w>
t ri
st ra
ex t
c las
stri p
at i
stret ch</w>
k n
v i
r ea
clas si
e n</w>
e tt
m e
c k</w>
wa i
h ou
k e</w>
' s</w>
sh i
p s</w>
classi c</w>
v e</w>
lea ther</w>
loo k</w>
t ly</w>
p rin
f it</w>
pp ed</w>
ett e</w>
g s</w>
sh ed</w>
to p</w>
li gh
ea s
b ac
ar e</w>
ad e</w>
sleev es</w>
o t
sil hou
ee l</w>
f eat
silhou ette</w>
comfor t</w>
at ed</w>
len d</w>
lin e</w>
at e</w>
g h</w>
m ade</w>
c ro
s s
a p
p u
t ext
z y</w>
en t</w>
m i
bac k</w>
u p</w>
it a
b lo
d o
t ra
kn it</w>
b ri
prin t</w>
co lo
g o</w>
da y</w>
b lend</w>
g ra
wai st</w>
s e
sty led</w>
sp or
r ed</w>
m p
f ted</w>
y o
de ta
strip es</w>
nec k</w>
er s</w>
p an
p atter
sw eat
m m
f la
w ea
a ble</w>
e ight</w>
an t</w>
d ra
ch y</w>
g o
ac k
p la
b y</w>
m ar
n t</w>
c ra
m e</w>
ti e</w>
i c
co l
an s</w>
t ou
l ing</w>
b ed</w>
ad ds</w>
sp ir
w n</w>
in spir
e d
w i
d ed</w>
yo u</w>
ver s
hi gh</w>
eas y</w>
m in
b e</w>
v er</w>
p a
per f
cra fted</w>
perf ec
de fin
mo der
fro nt</w>
t u
inspir ed</w>
de sign
w oo
p ro
h eel</w>
tw eight</w>
ligh tweight</w>
li an</w>
d en
e m</w>
ra l</w>
ch ic</w>
m s</w>
ad d</w>
ita lian</w>
bo o
i m</w>
lo n
d y</w>
nec k
sh ap
moder n</w>
w ar
k s</w>
la r</w>
j u
design ed</w>
p re
l d</w>
f l
in gs</w>
co o
on e</w>
sh ou
s and
ro u
a pp
ea l</w>
shou l
shi on
ur ing</w>
at ure</w>
deta il
al l</w>
o r</w>
s n
fin i
ur ed</w>
fu l</w>
f i
ch ing</w>
la ce</w>
h em</w>
s c
sign ature</w>
lo go</w>
j ack
t h</w>
jack et</w>
ch ar
d er</w>
re s</w>
g g
sweat er</w>
j e
r y</w>
h and
p hi
sle e
ea r
sli m</w>
woo l</w>
sand al</w>
b a
so le</w>
comfor ta
ou t</w>
t e
den im</w>
a m
le s</w>
an ce</w>
er ed</w>
vers ati
sh or
e y
stret chy</w>
versati le</w>
ch ed</w>
slee k</w>
je ans</w>
ev er
b ea
sk irt</w>
s mo
ro un
p l
ca su
col lar</w>
w or
it y</w>
i d</w>
c ti
coo l</w>
feat uring</w>
f f</w>
fu l
r ing</w>
e ly</w>
g e
bu tton</w>
v in
b el
f it
t er</w>
neck line</w>
comforta ble</w>
pan ts</w>
f re
e l</w>
m ing</w>
to e</w>
ru ff
sil k</w>
ta ge</w>
shion ed</w>
flo ral</w>
fl atter
s es</w>
casu al</w>
su pp
g i
vin tage</w>
n i
t ing</w>
d u
po li
a s</w>
ta i
su n
cu ff
app eal</w>
st ru
po ck
k y</w>
fa bri
colo r</w>
u p
la y
ou s</w>
c re
flatter ing</w>
perfec t</w>
on s</w>
o p
s mar
blo u
f ra
cro pped</w>
c ri
s et</w>
c en
in e</w>
br ings</w>
ar d</w>
b ro
lon g</w>
k er</w>
fabri c</w>
it e</w>
es t</w>
re e
at es</w>
c r
tai lo
ele v
sh o
sw ee
stra ps</w>
g a
w h
co zy</w>
flo w
ri b
t e</w>
er ing</w>
br ea
text ure</w>
k le</w>
x ed</w>
tri m</w>
wi de</w>
patter n</w>
en ti
p e
on al</w>
spor ty</w>
con tra
si de</w>
u ti
cuff s</w>
st ic
h oo
w ra
v es</w>
z ed</w>
smar t</w>
ma ke</w>
bo ld</w>
em ent</w>
defin es</w>
k es</w>
ati on</w>
text ured</w>
u res</w>
d ro
p i
ever y
t le</w>
patter n
ti c</w>
c ur
li ght</w>
lo w</w>
poli shed</w>
tailo red</w>
su b
stra p</w>
f le
b ree
er y</w>
ele g
fo ot
br ing</w>
sleev e</w>
so phi
sophi stic
f y</w>
w at
foot bed</w>
o ff</w>
m er
blou se</w>
so me</w>
te e</w>
g u
z i
b la
su it</w>
co ver
k ee
le g</w>
sn ea
h u
h em
s ea
g la
it s</w>
il l</w>
snea ker</w>
an c
bree zy</w>
i r</w>
ro m
st it
ot h</w>
rea dy</w>
ele ss</w>
g y</w>
ed ge</w>
w hi
boo t</w>
s p</w>
o ff
cri sp</w>
smo oth</w>
c al
spor t</w>
ful ly</w>
fit ted</w>
up d
ss ed</w>
cti on</w>
tou ch</w>
do wn</w>
po in
i l</w>
c al</w>
p e</w>
shor ts</w>
char m</w>
e ts</w>
min i
de li
re la
j er
jer se
feat ures</w>
supp or
s at
lo ver</w>
es s
jerse y</w>
i der
em bro
embro ider
der s</w>
c at
t em
sty li
wea r</w>
n y</w>
ey e</w>
k ing</w>
lo u
m u
mi d
pu l
v en</w>
d y
every day</w>
shoul ders</w>
brea th
t r
st a
ar d
pre tt
d es</w>
pock ets</w>
f lu
me ta
ac cen
sk in
contra st</w>
shoul der</w>
bu tt
len g
com fy</w>
prett y</w>
ver si
t re
en h
detail s</w>
b i
f eel</w>
co r
r o</w>
rela xed</w>
hand some</w>
me tri
ec e</w>
ch ec
ba g</w>
b ra
l s</w>
breath able</w>
ma kes</w>
styli sh</w>
ess enti
p ar
w o
fini sh</w>
st at
ck ed</w>
for m</w>
leng th</w>
fa u
a f
roun d</w>
fau x</w>
t an
el s</w>
c ate</w>
b loo
su per
y s</w>
ret ro</w>
sk in</w>
rib bed</w>
ck ing</w>
cu shioned</w>
lea n</w>
m at
p lu
bel t</w>
com p
h o
c ar
en d</w>
con stru
vi be</w>
it i
colo r
pla id</w>
rea m
an kle</w>
m es
wo ven</w>
war m</w>
le ss</w>
fini shed</w>
boo tie</w>
n o
lin ed</w>
ard w
st ed</w>
li ke</w>
sophistic ated</w>
d ou
m en
h ardw
hardw are</w>
co at</w>
ri ch</w>
cat ching</w>
b and</w>
l l</w>
tre n
p ed</w>
hem s</w>
f ri
f ad
sp ar
sub tle</w>
sig n</w>
n ight</w>
mid i</w>
shi mm
pp er</w>
lu x
de sign</w>
a b
stat ement</w>
lin en</w>
pul lover</w>
mo v
g las
strip ed</w>
glas ses</w>
si on</w>
po l
l li
ee k
dou ble</w>
c lean</w>
wa y</w>
b al
an y</w>
mes h</w>
cover ed</w>
h ea
g lea
di st
hi gh
c lo
ck s</w>
st u
g en
al s</w>
e er</w>
re si
m p</w>
eleg ant</w>
t en
n e
br and
blo ck</w>
wra p</w>
pattern ed</w>
h a
f t</w>
ro ss</w>
ad ju
ac ross</w>
ch a
st able</w>
essenti al</w>
el l</w>
sun glasses</w>
il ity</w>
un c
s y
st ic</w>
a ir
sh eer</w>
e la
roun ded</w>
sat in</w>
butt ons</w>
s lou
in to</w>
em bo
de n</w>
p in
fra m
fa shioned</w>
v ed</w>
air y</w>
wor k</w>
resi st
ch i
ch es</w>
w eek
wea ther</w>
shap ed</w>
adju stable</w>
pe y</w>
o versi
lli c</w>
wa sh</w>
s a
lu st
bea uti
w edge</w>
ri ght</w>
ta ke</w>
dra pey</w>
cr eat
sh ar
le tt
i m
cre w
meta llic</w>
crew neck</w>
zi p</w>
constru ction</w>
rom an
fad ed</w>
deli cate</w>
ch est</w>
gra phi
elev ates</w>
t ur
suppor t</w>
rou s</w>
pro vi
dra w
sleev eless</w>
perfec tly</w>
tw i
oversi zed</w>
go wn</w>
l it
b e
x i
stra ight</w>
kee p</w>
u l
in ter
e f
d ing</w>
roman tic</w>
di ce</w>
r a</w>
bo dice</w>
p at
r e</w>
pl at
swee t</w>
p lea
con tem
deta il</w>
contem po
glea ming</w>
ra ry</w>
plat form</w>
contempo rary</w>
shor t</w>
sh mer
shmer e</w>
pu ff
pla y
ca shmere</w>
bloo ms</w>
0 s</w>
th ered</w>
tan k</w>
mm ed</w>
fla t</w>
fi g
un der
si mp
gi ve</w>
ro o
bu ck
bo w</w>
shap e</w>
ruff led</w>
or g
cu tou
fre sh</w>
es s</w>
an g
sty ling</w>
s eas
seas on</w>
il t</w>
at t
bla ck</w>
f ur
th rou
c e
t ec
comp le
y st
wh ite</w>
st ap
sy m
fig ure</w>
ext ra</w>
plu sh</w>
ju st</w>
in y</w>
cr yst
wai st
ju mp
flu tt
le gs</w>
en d
week end</w>
v ely</w>
s ed</w>
vi br
v el
char ming</w>
stru c
stit ching</w>
ti m
slou chy</w>
jump suit</w>
e st
fin e</w>
b b
m on
gi ves</w>
lon g
s ure</w>
un ky</w>
tren d</w>
stap le</w>
pp y</w>
shar p</w>
per for
n ot
b lu
e p</w>
sweat shirt</w>
m ent</w>
d ar
s qu
v en
struc t
sn a
ful l</w>
al ly</w>
a sym
v or
defin e</w>
ni es</w>
detail ed</w>
bu ilt</w>
t onal</w>
rea d</w>
tw o</w>
tri mmed</w>
embroider ed</w>
di e</w>
lin ing</w>
k in
draw st
st ream
ruff les</w>
an n
sh ine</w>
to pped</w>
j ac
flow y</w>
vibr ant</w>
or e</w>
lin es</w>
jac qu
gg ed</w>
asym metri
g es</w>
jacqu ard</w>
st and
fa vor
tw ill</w>
qu i
ea r</w>
ch unky</w>
whi le</w>
war dro
pu mp</w>
wardro be</w>
w in
hoo die</w>
qu il
u de</w>
a m</w>
waist band</w>
k i
enh anc
rou s
wat er</w>
asymmetri cal</w>
skin ny</w>
go l
rin gs</w>
plea ts</w>
off ers</w>
i or</w>
b ur
sh ir
k ling</w>
chec ks</w>
t rous
pl eat
stream lined</w>
shap ely</w>
ou t
g ing</w>
p li
in s</w>
favor ite</w>
cre pe</w>
bla z
n s</w>
drawst ring</w>
sh es</w>
i con
uti l
me ans</w>
d one</w>
bo dy</w>
lux e</w>
embroider y</w>
su e
op en</w>
i mp
trous ers</w>
stu ds</w>
lust rous</w>
sue de</w>
so cks</w>
resist ant</w>
p er</w>
c in
wat er
p ing</w>
eat h</w>
to p
sp o
lo w
gh tly</w>
super soft</w>
j o
icon ic</w>
cal f
st ing</w>
fle xi
calf skin</w>
pock et</w>
bo x
loo ks</w>
m b
fla red</w>
color ful</w>
br a</w>
y ing</w>
kin i</w>
la c
it ude</w>
do ts</w>
tt ed</w>
op ard</w>
le opard</w>
ra ble</w>
n ing</w>
fle ece</w>
bri ght</w>
y ar
p ure</w>
detail ing</w>
dist in
b ly</w>
pleat ed</w>
i ous</w>
graphi c</w>
h and</w>
fro ck</w>
sof tly</w>
n der</w>
embo ssed</w>
blaz er</w>
skin nies</w>
org an
g an</w>
cha in</w>
lo af
fit ting</w>
upd ated</w>
t ro
ever y</w>
wor k
supp le</w>
pol o</w>
loaf er</w>
ic al</w>
sho w
se qu
c an</w>
att itude</w>
st ack
sc al
min i</w>
ela stic</w>
buck le</w>
su l
simp le</w>
s lin
beauti fully</w>
i ce</w>
at ing</w>
a round</w>
sea ms</w>
u ri
rib b
pi ece</w>
lay er</w>
v y</w>
re et</w>
throu gh</w>
struct ured</w>
la id</w>
bi kini</w>
sp read</w>
lu min
ff on</w>
chi ffon</w>
d iti
re fin
m ore</w>
blu e</w>
accen tu
stack ed</w>
b it</w>
sli p</w>
tim eless</w>
o ver</w>
flow ers</w>
sun ny</w>
su per</w>
l ly</w>
ca m
pro of</w>
poin ty</w>
ed ges</w>
th er
t one</w>
t en</w>
sho w</w>
len ses</w>
ti on</w>
mov ement</w>
ma li
ge ts</w>
f li
car di
puff ed</w>
la p
war m
enh ance</w>
th e
fre e</w>
w ell</w>
vel v
sle nder</w>
y et</w>
m y</w>
flexi ble</w>
cardi gan</w>
te ch
play ful</w>
le t</w>
wi cking</w>
provi des</w>
mini mali
w ill</w>
da ys</w>
twi st</w>
sh eath</w>
st reet</w>
sh y</w>
a ge</w>
upd ate</w>
par ty</w>
h al
sli ghtly</w>
ea t</w>
shimm ering</w>
mm ing</w>
kee ps</w>
su mm
kn e
in tri
cu l
cal ly</w>
scal lo
high ligh
gra ce
ann el</w>
roo my</w>
pa ir</w>
sli t</w>
i st
da in
creat e</w>
sw in
k a</w>
ge o
not ched</w>
g et</w>
fo am</w>
cryst als</w>
ti es</w>
mini dress</w>
ele t</w>
ear rings</w>
b es</w>
or y</w>
lay ered</w>
s ly</w>
fu n</w>
ef for
flo unc
elev ate</w>
w al
effor t
quil ted</w>
minimali st</w>
il low
gra in</w>
swin gy</w>
squ are</w>
th ing</w>
ss ing</w>
ruff le</w>
lo un
lit tle</w>
dain ty</w>
u ral</w>
ri se</w>
du rable</w>
spar kling</w>
mo ist
moist ure</w>
fram es</w>
am p</w>
am on
z ing</w>
wra pped</w>
bel li
t ry</w>
le gg
f rin
ck et</w>
' ll</w>
vi bes</w>
geo metri
ea se</w>
cutou t</w>
an tly</w>
st o
r un
li fted</w>
i d
enhanc es</w>
s ec
pan els</w>
f ee
ta per
sophistic ation</w>
s ur
h as</w>
cur ved</w>
pla cket</w>
ma x
lay ering</w>
go ld</w>
ni shed</w>
n a
br and</w>
sli de</w>
ee n</w>
c ed</w>
ra c
em belli
ad ded</w>
z e</w>
k ed</w>
hu e</w>
water proof</w>
fu r</w>
vers at
tec h</w>
scallo ped</w>
ro w
versat ility</w>
s y</w>
max i</w>
ri an</w>
taper ed</w>
sil ky</w>
mo ti
h er
comple te</w>
tro p
di amon
sub tly</w>
n y
n ess</w>
mi xed</w>
gol den</w>
feat ure</w>
di men
bea ch</w>
h ear
e t
c lu
si des</w>
ri ch
kn o
tech no
refin ed</w>
lo gy</w>
st ep</w>
lo n</w>
cur ve</w>
ti ve</w>
techno logy</w>
c an
bo tt
ar ch</w>
wea ring</w>
s lu
pp ing</w>
pattern s</w>
n ch</w>
hoo d</w>
fre nch</w>
rich ly</w>
re c
dar k</w>
sc ar
rin k
ra w</w>
po p</w>
trop ical</w>
su n</w>
mar ks</w>
len ds</w>
in g
cu shion
ligh tly</w>
b illow
th ers</w>
s o</w>
geometri c</w>
fla un
f ac
t ru
an im
tr an
smo cked</w>
p ti
unc tu
tr a</w>
rea t</w>
p unctu
n on
m a</w>
u pper</w>
scar f</w>
rom ance</w>
ny lon</w>
in o</w>
lo vely</w>
v o
ul tra</w>
go ing</w>
em in
dro pped</w>
dro p</w>
summ ery</w>
s so
pla y</w>
fram ed</w>
com b
box y</w>
warm th</w>
s er
highligh ts</w>
g ri
b ar
al l
w il
se ts</w>
lap els</w>
accen ts</w>
tem p
spo ts</w>
m em
d r
p ear
in st
eleg ance</w>
color s</w>
bott o
stri king</w>
sp li
g reat</w>
flounc y</w>
g in
en ing</w>
chec k</w>
a ga
s cul
scul p
j a
f emin
st ar
ru gged</w>
ou sly</w>
moti f</w>
s em
en c
elev ated</w>
y ed</w>
sequ ins</w>
mu l
anim al</w>
prin ted</w>
neck lace</w>
n at
gu i
o c
st s</w>
s l
n er</w>
meta l</w>
mat ic</w>
ita ly</w>
fla re</w>
bo a
velv et</w>
util ita
utilita rian</w>
p len
g or
sk i
pl un
legg ings</w>
h in
cushion ing</w>
stra ppy</w>
id eal</w>
cu te</w>
contra sting</w>
ch o
wa shed</w>
spli t</w>
sw im</w>
st i
mo d
plen ty</w>
er n</w>
b er
temp les</w>
ss y</w>
ru ching</w>
pat ch</w>
ed gy</w>
sh ing</w>
g ed</w>
al lover</w>
w est
west ern</w>
ss ly</w>
so li
lumin ous</w>
femin ine</w>
dra matic</w>
stit ched</w>
fra yed</w>
botto ms</w>
th y</w>
off er</w>
ne w</w>
high light</w>
do t</w>
v ac
mon o
hand crafted</w>
ha ve</w>
ga thered</w>
e ff
v e
re e</w>
qu ar
can v
slin g
la r
kne e</w>
hu gg
cu shy</w>
cti ve</w>
jo gg
ga u
defin ing</w>
con tou
ca se</w>
super ior</w>
stand out</w>
sling back</w>
shi ft</w>
s ing</w>
ru ched</w>
ma king</w>
cover age</w>
canv as</w>
br u
wor n</w>
ru bb
cro ss
bra c
bo th</w>
soli d</w>
pro fi
pa ir
p ac
bu t</w>
a mp
ir e</w>
g rounded</w>
wh en</w>
th i
spar kle</w>
ribb ing</w>
len t</w>
grace ful</w>
fra me</w>
bac k
ac c
mem ory</w>
c s</w>
brand ing</w>
ream y</w>
qui ck</w>
profi le</w>
cri ss
colo red</w>
ra gla
ragla n</w>
perfor m
ki ssed</w>
k a
frin ge</w>
dimen sion</w>
w eight</w>
m ee
fli r
dist re
d ly</w>
yar ns</w>
th ree</w>
ter ry</w>
ta kes</w>
rubb er</w>
perform ance</w>
in ed</w>
g lit
criss cro
ca p</w>
ac t</w>
shi on</w>
le ssly</w>
dy ed</w>
t iny</w>
l le</w>
fin ely</w>
sta y</w>
organ ic</w>
long line</w>
hem line</w>
dra pe</w>
distin gui
ho le</w>
g lo
mod al</w>
bri ef
y going</w>
gen tly</w>
o ver
in ing</w>
i zed</w>
eas ygoing</w>
up gra
sp ec
mer ino</w>
dy e</w>
cross body</w>
top line</w>
th o
pro tec
i se</w>
gor ge
ten s</w>
brief s</w>
su pre
cutou ts</w>
bri gh
u m</w>
gu lar</w>
d ri
cin ched</w>
brac elet</w>
mo ck</w>
hugg ing</w>
gla m</w>
v amp</w>
ten ed</w>
suppor tive</w>
sul try</w>
li ft</w>
k ey
fla p</w>
b ility</w>
poli sh</w>
po pli
popli n</w>
b bed</w>
lux uri
ex p
diamon d</w>
tr un
non stretch</w>
h el
er ic
dra ped</w>
am eric
ra t</w>
lac y</w>
ka rat</w>
flutt ery</w>
flir ty</w>
c le
brand ed</w>
blo sso
trun ks</w>
quar ter</w>
b and
tra diti
mi x</w>
m our</w>
in st</w>
cu ps</w>
aga inst</w>
sw ir
ou n
mi cro
m an</w>
imp ec
impec ca
i a</w>
go es</w>
dy suit</w>
d in
bo dysuit</w>
bea ds</w>
z z
th on
strip e</w>
ski mming</w>
p ri
gla mour</w>
a long</w>
ti ered</w>
creat es</w>
col d</w>
ck er</w>
c at</w>
7 0s</w>
under st
plun ging</w>
fa shion</w>
ec t</w>
billow y</w>
b or
ri b</w>
in sets</w>
i al</w>
clo set</w>
underst ated</w>
fl at
fi er
col le
at o
al ity</w>
yo ke</w>
y c
shir t
s coo
rink led</w>
pan el</w>
n eat
fri end
contou red</w>
brand s</w>
st ro
shirt dress</w>
re p
neat ly</w>
dr ying</w>
brea sted</w>
to te</w>
de ep</w>
th an
s en
key hole</w>
d ry</w>
cur ves</w>
bar ing</w>
accentu ates</w>
w l</w>
v el</w>
sp la
sea m
s ing
fur ther</w>
cen ter</w>
beauti ful</w>
upd ates</w>
st and</w>
nat ural</w>
ch annel</w>
to ps</w>
than ks</w>
t ness</w>
mp er</w>
friend ly</w>
ex t</w>
anc i
s m
poin ted</w>
mul ti
mi d</w>
kno tted</w>
eff ect</w>
ul tra
sh ear
poin t</w>
mee ts</w>
ati ons</w>
' t</w>
tou ches</w>
thon g</w>
ta ss
n ext</w>
mo to</w>
loo se</w>
ec k</w>
der by</w>
accen ted</w>
v ing</w>
swee tly</w>
shear ling</w>
oc ca
li vely</w>
hu ed</w>
com e</w>
cho ice</w>
cam o</w>
provi de</w>
hea d</w>
amp li
n eat</w>
el lent</w>
du ty</w>
d ate</w>
bal lo
yar n</w>
whi sk
tur t
sing le</w>
sho e</w>
po w
o wn</w>
me ly</w>
hin t</w>
g er</w>
flutt er</w>
bru shed</w>
wh er
tur n</w>
sw ear</w>
pu t</w>
loun ge</w>
li f
hea thered</w>
hal ter</w>
cryst al</w>
ati ve</w>
turt len
tu cked</w>
traditi onal</w>
ti ed</w>
s or
mov able</w>
g ro
ev en</w>
yc led</w>
util ity</w>
turtlen eck</w>
the tic</w>
sh ad
mu le</w>
fur thers</w>
wil d</w>
st un
rec ycled</w>
op ti
intri cate</w>
gorge ous</w>
g ar
ballo on</w>
a ir</w>
rin kle</w>
flo uri
s co
ro l
ch an
bel ted</w>
bur nished</w>
a es
wea ve</w>
s on</w>
ra in
qu é</w>
p added</w>
graphi cs</w>
g re
ea n</w>
d reamy</w>
c t</w>
th row
m al</w>
u ine</w>
sp ac
pol ka</w>
mat er
mar k</w>
i sle
h o</w>
gen uine</w>
ga me</w>
effort less</w>
w el
twi sted</w>
t ure</w>
sw i
sta in
en li
ea si
co ver</w>
cam i</w>
c ted</w>
sil ver</w>
sh ell</w>
pa isle
le y</w>
k e
fla ir</w>
fier ce</w>
embelli shed</w>
cuff ed</w>
bo ho</w>
wa ys</w>
sur pli
surpli ce</w>
sna ke</w>
slu bbed</w>
qu e</w>
pattern ing</w>
off ice</w>
o ld</w>
men ts</w>
men swear</w>
lo ve</w>
hoo ded</w>
clo sure</w>
blo cked</w>
aes thetic</w>
shimm er</w>
se a</w>
pin k</w>
ur dy</w>
ti me</w>
st urdy</w>
lo go
lett e</w>
hand y</w>
fo o
comforta bly</w>
blosso ms</w>
accentu ate</w>
t un
t ful</w>
s iti
pac k</w>
in sul
essenti als</w>
d ec
a u
wher e</w>
wai sted</w>
sec ured</w>
pi ma</w>
paisle y</w>
gra zing</w>
flu id</w>
e long
c es</w>
su res</w>
on ed</w>
lu gged</w>
effort lessly</w>
e ed</w>
com es</w>
a th
throw back</w>
th rea
re movable</w>
pu ts</w>
fee ls</w>
ev ening</w>
e g
boa sts</w>
ath le
wal let</w>
stit ch</w>
sp in</w>
prin ts</w>
pin stripes</w>
n d
en ds</w>
do w
cu ff</w>
bloo m</w>
stun ning</w>
st oo
stoo th</w>
sof tness</w>
sh a
pul l</w>
nd stooth</w>
mb er</w>
hou ndstooth</w>
glo ssy</w>
gh ts</w>
ang le</w>
tw in
occa sion</w>
n am
mono gra
for d</w>
d den</w>
colo ring</w>
af ter</w>
zi pper</w>
sti lett
stilett o</w>
loo r</w>
la ri
g li
di pped</w>
fl annel</w>
easi ly</w>
b one</w>
ver ti
v a
qu ality</w>
hi dden</w>
f ea
ex ce
et ched</w>
casu ally</w>
wi th
versi on</w>
sea m</w>
o x
f loor</w>
distin ctive</w>
ta way</w>
sw eat</w>
sil ver
plu m</w>
p ea
k in</w>
in es</w>
f ly</w>
exce pti
eleg antly</w>
distre ssed</w>
constru cted</w>
ca re
bra i
blo cking</w>
ar y</w>
sna k
snak es
snakes kin</w>
ox ford</w>
inter ior</w>
hal f</w>
fi es</w>
whi m
punctu ated</w>
po o
pe plum</w>
pa in
on es</w>
m il
glit ter
gau zy</w>
en sures</w>
ch ee
ber ry</w>
bal anc
la mb
in sole</w>
fo l
fi b
fac e</w>
e i
bo l
tun ic</w>
slin ky</w>
ro n</w>
me di
h en
americ an</w>
w rinkle</w>
un der</w>
tw eed</w>
th ear
text ures</w>
sw im
sl its</w>
ro w</w>
p or
n o</w>
n ed</w>
fri lly</w>
flouri sh</w>
do l
cro p</w>
cro c</w>
comp act</w>
classi cally</w>
war d</w>
s ca
pu ff</w>
pi ping</w>
inst ant</w>
gla mo
9 0s</w>
z es</w>
tu ral</w>
shap es</w>
po lari
p ra
p end
me d
jogg ers</w>
fri l
flat ter</w>
cu b
colle ction</w>
an y
ad diti
to ge
s grain</w>
rain bow</w>
pl ated</w>
j am
i ri
hu es</w>
gro sgrain</w>
ev er</w>
da zz
an i
throu gh
through out</w>
su stain
hear ty</w>
g oo
fur nished</w>
sc ious</w>
j ap
glamo rous</w>
f un
d ded</w>
an ti
perfor ated</w>
o tic</w>
ma xi
luxuri ous</w>
gu e</w>
gra di
gradi ent</w>
f anci
e ty</w>
de ligh
ch el
ch e
cat ely</w>
al li
ab stra
thear t</w>
text ural</w>
swee theart</w>
puff er</w>
ma s</w>
il lumin
hen ley</w>
f ty</w>
est i
all ure</w>
toge ther</w>
t ch</w>
st e
shimm ery</w>
r at
play fully</w>
lamb skin</w>
l an
flo at
e qu
box er</w>
tra ck</w>
swim suit</w>
sp ad
embo ssing</w>
chel sea</w>
spor ting</w>
ro y</w>
polari zed</w>
care free</w>
sof tened</w>
quil ting</w>
fanci ful</w>
den se</w>
cor du
co ck
ar ti
an ese</w>
additi on</w>
upgra de</w>
sa v
pe bb
p h
org ette</w>
med alli
k en</w>
jap anese</w>
ha ir</w>
ge orgette</w>
f our</w>
cordu roy</w>
co un
ab sor
w ire</w>
vel te</w>
sho ck</w>
sc en
s velte</w>
rin g
f esti
en sure</w>
cur vy</w>
brai ded</w>
am ps</w>
a bo
t fully</w>
squ ar
squar ed</w>
mo st</w>
mini skirt</w>
lo fty</w>
ec ted</w>
blou son</w>
' re</w>
tai l</w>
mp ed</w>
loun ging</w>
logo s</w>
ita ge</w>
her itage</w>
g ir
ey ela
eyela sh</w>
ex otic</w>
em p
ad ding</w>
abstra ct</w>
win dow
ven i
v est</w>
top stitching</w>
st em</w>
spad ri
sh iny</w>
pa jam
pajam a</w>
o w
monogra m</w>
e spadri
din ner</w>
con veni
app li
z zy</w>
sty les</w>
stra p
ro ck</w>
espadri lle</w>
cu taway</w>
bo mber</w>
back pack</w>
work out</w>
tran siti
strap less</w>
po sed</w>
over la
loo king</w>
in set</w>
gen er
dol man</w>
bal ance</w>
whim si
su mp
sump tu
protec tion</w>
hou se</w>
fini shing</w>
de cor
c ir
al ways</w>
tu ck</w>
rac er
racer back</w>
pre mi
premi um</w>
perfor ations</w>
pend ant</w>
gol d
ey elet</w>
window pan
un i
st er
s el
re ly</w>
mo l
mm y</w>
li p</w>
in clu
flow ing</w>
en chan
cu to
b est</w>
a vi
un exp
supre mely</w>
silver y</w>
sat iny</w>
ro mper</w>
ring bone</w>
pebb led</w>
p al
her ringbone</w>
gold tone</w>
float y</w>
cor e</w>
c rinkled</w>
bel l</w>
all uring</w>
a g
st ree
sm all</w>
sh af
shaf t</w>
flaun t</w>
enti on</w>
windowpan e</w>
w ant</w>
vo luminous</w>
t el
show ing</w>
rol led</w>
ribb on</w>
ra in</w>
p ou
enc il</w>
en ce</w>
c i
ver s</w>
v al</w>
sta mped</w>
spo tted</w>
show s</w>
sem i</w>
s ch
p encil</w>
ne u
lo ck</w>
lett ering</w>
cu sto
clu tch</w>
chee ky</w>
c ing</w>
bo ard</w>
ato p</w>
athle tic</w>
ang led</w>
acc ent</w>
vac ation</w>
u se</w>
rep ellent</w>
neu tra
le r</w>
gri d</w>
en ded</w>
el bow</w>
absor b
whimsi cal</w>
the ir</w>
tailo ring</w>
si onal</w>
roun ds</w>
pan el
li ved</w>
for ward</w>
ei gh
distingui shes</w>
cock tail</w>
bri d
with out</w>
spec ial</w>
s sion</w>
ro be</w>
re v
pow er</w>
po ps</w>
pear ls</w>
out fit</w>
fu zzy</w>
flow er</w>
ex posed</w>
brigh ten</w>
twin kling</w>
sweat pants</w>
sec ure</w>
s ou
mu st</w>
mo ve</w>
impecca bly</w>
fad ing</w>
bo y
se wn</w>
scoo ped</w>
pair s</w>
neutra l</w>
k able</w>
flutt ering</w>
do tted</w>
de m
ch ev
bu mp</w>
at or</w>
an gular</w>
1 4</w>
v ir
tra vel</w>
sem ble</w>
sc ent</w>
s ity</w>
pre ppy</w>
mov ing</w>
m it
lu g</w>
l a</w>
inst antly</w>
grace fully</w>
d ance</w>
ck y</w>
c rea
va ri
unexp ected</w>
tel le</w>
sumptu ous</w>
sh ly</w>
poin telle</w>
pa le</w>
n u
in di
g rounds</w>
ele ment</w>
bi g</w>
bea ded</w>
ba r</w>
ven s</w>
ti pped</w>
sli pper</w>
seam less</w>
roo m</w>
ro ll</w>
p ee
i sed</w>
hel p</w>
atter ed</w>
work wear</w>
tra ction</w>
t or
spar k
sli mming</w>
pra cti
mo ment</w>
in t
goo d</w>
gin gh
gingh am</w>
g in</w>
flaun ting</w>
cor k</w>
a gg
wea thered</w>
sta r</w>
scen e</w>
pi qué</w>
na uti
kne es</w>
in ten
hear t</w>
g n
fril ls</w>
dy nam
da i
ab ility</w>
ultra soft</w>
tw ear</w>
tren ch</w>
tass el</w>
ster ling</w>
spor ts</w>
smo cking</w>
ser ves</w>
sav vy</w>
resist i
re fre
ra y</w>
par t</w>
pal m</w>
pa v
ir resisti
dynam ic</w>
dra ma</w>
to wn</w>
swee ping</w>
s a</w>
h at</w>
ff le</w>
enchan ting</w>
ch il
cen ter
ca p
c c
w e
su it
r s</w>
pav é</w>
p le</w>
festi ve</w>
en er
ea ling</w>
e ted</w>
ch am
c ard</w>
bol dly</w>
threa ds</w>
struct ure</w>
plea t</w>
pa st
no t</w>
la sting</w>
imp re
illumin ate</w>
every thing</w>
d rea
car go</w>
butt ery</w>
bur berry</w>
bra lette</w>
b all</w>
a il</w>
z ir
zir con
zircon ia</w>
whisk ering</w>
wat ch</w>
tt ail</w>
star s</w>
shir ttail</w>
sa sh</w>
s si
s k</w>
p ack
in ky</w>
foo t</w>
di al</w>
cub ic</w>
cham bra
chambra y</w>
c ity</w>
c ele
anc y</w>
wor thy</w>
u s</w>
tu lle</w>
ti ger</w>
simp ly</w>
re ta
p en
hoo ps</w>
ex agg
exagg er
en semble</w>
chev ron</w>
ampli fy</w>
zi pp
tri ms</w>
spac ious</w>
re fle
re du
punctu ate</w>
pou ch</w>
pat ent</w>
nauti cal</w>
mat ching</w>
long er</w>
jogg er</w>
fro n
fib er</w>
con t
co wl</w>
ar t</w>
vi vi
under wire</w>
sca le</w>
overla y</w>
lay ers</w>
k er
gu ing</w>
g round</w>
diamon ds</w>
ani sh</w>
ac cor
vir gin</w>
verti cal</w>
velv ety</w>
tw een</w>
tu mmy</w>
su al</w>
su a
sua ve</w>
spla sh</w>
mol ded</w>
mo ves</w>
mo tt
deli vers</w>
be tween</w>
ab out</w>
ab ly</w>
tri blend</w>
thi gh</w>
so n
sh ines</w>
p ly</w>
oo l</w>
medi a</w>
mar ked</w>
lin k</w>
lac es</w>
l ite</w>
l at
inter lo
every where</w>
deli cately</w>
comb ine</w>
absorb ing</w>
vo lu
sustain able</w>
supre me</w>
sp y</w>
sp anish</w>
sp a
ri pped</w>
ow y</w>
o m
n g</w>
mott led</w>
moder ni
ja un
indi go</w>
impecca ble</w>
att ention</w>
1 8</w>
work day</w>
wi spy</w>
past el</w>
pa per
pa ja
mon d</w>
glitter ing</w>
excepti onal</w>
cro ss</w>
cha rac
balanc es</w>
b les</w>
z e
th enti
paja mas</w>
on ally</w>
mono ch
lou s</w>
lif ts</w>
il lu
custo m</w>
b ou
au thenti
al mond</w>
tra ce</w>
tou gh</w>
ti cu
ta l</w>
paper bag</w>
p y
or tho
lo g
in du
in cre
h eight</w>
ge o</w>
ela stic
ear thy</w>
dazz ling</w>
cin ches</w>
ba sk
app ear
x es</w>
ther e</w>
ta b</w>
stand by</w>
shir red</w>
re lea
pair ed</w>
pain ted</w>
ou gh</w>
mo o
mit ered</w>
irresisti ble</w>
interlo cking</w>
gu cc
gucc i</w>
ed ly</w>
deligh tful</w>
cu p
cal f</w>
ampli fies</w>
accor di
ze bra</w>
woo lly</w>
tw ir
th es</w>
smar tly</w>
ri pp
re in
p un
mil it
micro fiber</w>
jaun ty</w>
it ation</w>
incre di
in ess</w>
illu sion</w>
hi p</w>
gra ined</w>
fri end</w>
fli p</w>
elastic ized</w>
ea u</w>
ea ch</w>
u sing</w>
shad es</w>
sha wl</w>
sh re
scoo p</w>
re nt</w>
p on
milit ary</w>
medalli on</w>
le ts</w>
la dy
la d
i zing</w>
en ough</w>
design er</w>
blou sy</w>
ad or
smo o
ri p
re n
ra ce</w>
or s</w>
neck lines</w>
na me</w>
inter est</w>
hel ps</w>
gir l</w>
g y
e f</w>
co u
c er
c ard
an e</w>
a way</w>
sea ming</w>
sculp ted</w>
me ticu
insul ation</w>
gla re</w>
du al</w>
ch em
card i</w>
b lan
an ch
y pe</w>
versi ble</w>
tu res</w>
styli shly</w>
sco res</w>
re versible</w>
op tion</w>
o ther</w>
mu m</w>
k it
ju te</w>
i an</w>
fra ying</w>
crisscro ssed</w>
cele br
ca sc
an ato
wra ps</w>
vivi d</w>
ther eal</w>
sun nies</w>
sh ining</w>
sculp tural</w>
pat ch
mi sole</w>
m ati
la vi
frin ged</w>
for e</w>
fa shion
end less</w>
e thereal</w>
ca misole</w>
bea chy</w>
accordi on</w>
woo d
ver ly</w>
v enti
st er</w>
spark ly</w>
sna p</w>
shap ing</w>
sch ool</w>
row s</w>
pro por
or n
opti ons</w>
ne on</w>
lin ks</w>
lady like</w>
ke y</w>
fri ll</w>
fit s</w>
fee t</w>
en s</w>
elong ated</w>
dra mati
der ed</w>
cup sole</w>
conveni ent</w>
col la
cle verly</w>
boy friend</w>
ba by</w>
anato mi
sat ch
satch el</w>
s lo
s core</w>
re fresh</w>
qui s
ou nt</w>
ot cut</w>
maxi mum</w>
flo p</w>
ex c
enli ven</w>
distre ssing</w>
de sk</w>
cir c
chem ise</w>
ch u
ch e</w>
bo otcut</w>
am ount</w>
al so</w>
ad ven
y ou
un ce</w>
si ons</w>
ra di
poin ts</w>
pear l</w>
ot ype</w>
mes mer
loo p</w>
log otype</w>
imp act</w>
h y
h it</w>
gar den</w>
g il
flo unce</w>
fi ve</w>
ex quis
e qui
dramati cally</w>
distingui sh</w>
crisscro ssing</w>
chil ly</w>
butt er
bal let</w>
ang les</w>
water color</w>
tur ning</w>
tri angle</w>
ter n
swi ss</w>
ru stic</w>
patch work</w>
mat te</w>
ki ck</w>
inspir ation</w>
incredi bly</w>
il s</w>
hoo p</w>
ha mm
gau ge</w>
gar ment</w>
fo re
fac eted</w>
ev en
enli vens</w>
di sc
charac ter</w>
ba rely</w>
b on
avi ator</w>
win d</w>
volu me</w>
to o</w>
ta ll</w>
ta ble</w>
stu dded</w>
st one</w>
sequ in</w>
run ning</w>
ru gg
ra bility</w>
r and
pin tucked</w>
om br
ni ghts</w>
me use</w>
lu scious</w>
le vel</w>
lay s</w>
intri gue</w>
il le</w>
gla ss</w>
fra ming</w>
ex per
ett i</w>
en ri
do se</w>
den i
char ms</w>
char meuse</w>
ch et</w>
b ir
th ings</w>
th an</w>
ro se</w>
ombr é</w>
mid weight</w>
im itation</w>
hand made</w>
gy m</w>
fee ling</w>
d le</w>
co ated</w>
chi ef</w>
buck et</w>
be fore</w>
b by</w>
ar tfully</w>
any thing</w>
8 0s</w>
yo c
under scores</w>
su sp
stat us</w>
se cu
sc attered</w>
propor ti
n ity</w>
mesmer izing</w>
l yoc
ker chief</w>
hand kerchief</w>
g a</w>
flow ery</w>
flatter s</w>
exagger ated</w>
equi pped</w>
di s
crisscro ss</w>
ca st</w>
c la
c ess</w>
thi ck</w>
sna ps</w>
slee p</w>
sk y</w>
si ve</w>
poo l
pool side</w>
ortho lite</w>
organ ized</w>
or din
opti onal</w>
ni gh
m ed</w>
leng th
lea ves</w>
kit ten</w>
kee ping</w>
k ka</w>
in ner</w>
h ar
gil ded</w>
g g</w>
fla sh</w>
cuto ff</w>
cro chet</w>
chu kka</w>
ch able</w>
c are</w>
boa st</w>
w on
ur sing</w>
under score</w>
un deni
tass els</w>
swir ling</w>
swee ten</w>
stu d</w>
st amps</w>
sp rinkled</w>
sp i
si zed</w>
sen se</w>
sat ur
rea r</w>
re vi
re ver
o ri
not ch</w>
n ursing</w>
lyoc ell</w>
lavi sh</w>
lar ge</w>
hi ps</w>
hand le</w>
h eigh
gi ving</w>
fabri c
f all</w>
dar ing</w>
cover s</w>
c lou
c lar
bea ding</w>
ba se</w>
ac ti
tor to
swir ls</w>
rein for
r and</w>
pre gn
mater nity</w>
lou sly</w>
j ean</w>
it ec
i e</w>
fun n
exc ellent</w>
enhanc ed</w>
el d</w>
d uring</w>
ch itec
brid ge</w>
billow ed</w>
ar chitec
a d</w>
whi p
tu lip</w>
tru e</w>
tru cker</w>
tri c</w>
sw oo
suit ing</w>
stri an</w>
st y</w>
sn u
secu res</w>
rugg edly</w>
rea ch</w>
rac ing</w>
pre c
pol y
par ka</w>
p es</w>
o pu
ni ke</w>
ma ge</w>
m ir
l and</w>
in no
il ed</w>
hem ian</w>
gra ce</w>
funn el</w>
fabric ation</w>
dimen sional</w>
dec ad
cont our</w>
co n</w>
ca ble</w>
bo hemian</w>
b oun
ar tful</w>
ar row</w>
wel t</w>
tren dy</w>
sto p</w>
sel f</w>
pri m</w>
pla ys</w>
pi ec
p eek
las er</w>
it sy</w>
in fu
in flu
il lust
gener ously</w>
for ms</w>
equ e
eque strian</w>
enc ru
embelli sh
ed ged</w>
cti onal</w>
bu mper</w>
breath ability</w>
band ed</w>
back ground</w>
b el</w>
appli qué</w>
wa ffle</w>
w on</w>
ven ts</w>
ti ghts</w>
ten c
tenc el</w>
stit ches</w>
st ones</w>
sh een</w>
pregn ancy</w>
peek abo
peekabo o</w>
pac a</w>
l b
inclu ding</w>
gre y</w>
gre en</w>
emp ire</w>
cre w</w>
con scious</w>
bloo ming</w>
ar chi
al tern
al paca</w>
abo ve</w>
won der
vi vac
vivac ious</w>
ur b
tim ate</w>
ti ers</w>
suppor ting</w>
stand s</w>
s ett
pti v
po ver</w>
pear ly</w>
pat ches</w>
panel ing</w>
ori gin
m an
lett ers</w>
lap el</w>
gri ppy</w>
for mal</w>
flo at</w>
flaun ts</w>
fini shes</w>
ec o</w>
da sh</w>
cor d</w>
clo th</w>
ca ptiv
c li
zi g
zig z
y ear</w>
win d
wal kable</w>
ul timate</w>
top stitched</w>
sequ ined</w>
sc rat
rec tan
po pover</w>
pa lette</w>
mater i
materi als</w>
lb d</w>
iti es</w>
inten si
inno v
illust r
hand s</w>
gh s</w>
fa bu
f ir
f il
exp lo
enhanc ing</w>
comple ment</w>
butter fly</w>
band s</w>
ar ray</w>
aga in</w>
tu x
stro ng</w>
st rat
sleev ed</w>
sand ing</w>
sa y</w>
re vers
prin cess</w>
orn ate</w>
ma g
m ess
lay er
je w
h or
glit ter</w>
g le</w>
ex u
encru sted</w>
emp ha
d oo
d a</w>
co ur
cha ins</w>
bor der</w>
bi as</w>
acti v
tux ed
tuxed o</w>
tru mp
trump et</w>
ta ste
sp iri
spiri t</w>
slou ched</w>
ro cker</w>
pla ced</w>
ph one</w>
pa inter
p ic
n ee
mu ted</w>
hamm ered</w>
g ore</w>
g lin
fo il</w>
f er
excepti onally</w>
doo r</w>
d itsy</w>
cro w
che ery</w>
ch ann
c reamy</w>
appear ance</w>
upgra des</w>
undeni able</w>
u sa</w>
thi ghs</w>
the y</w>
poo l</w>
painter ly</w>
p j
pj s</w>
on d</w>
lad der</w>
la bel</w>
f ill</w>
ext ended</w>
di p</w>
dem ure</w>
de st
cle ver</w>
clar ity</w>
c l
bou cl
ba sed</w>
wood grain</w>
whisk ered</w>
w ing</w>
venti l
th in</w>
ter ior</w>
taste ful</w>
swi shy</w>
suppor ts</w>
strat eg
star t</w>
rectan gular</w>
mir ro
mar led</w>
lo ved</w>
lo fted</w>
lif e</w>
lac ing</w>
ki cky</w>
in side</w>
ic ally</w>
flexi bility</w>
ey ond</w>
ex terior</w>
clo thes</w>
cin ching</w>
captiv ating</w>
bu st</w>
brigh tens</w>
bri lli
boucl é</w>
b eyond</w>
b are</w>
anti qu
zigz a
week ends</w>
waist line</w>
t read</w>
sta ys</w>
st ealing</w>
sso ver</w>
sp u
slu b</w>
shre dded</w>
se er
seer su
reta ining</w>
redu cing</w>
qu é
pon te</w>
maxi mi
lon e</w>
innov ative</w>
in ation</w>
fre sh
flounc ed</w>
flo w</w>
ff y</w>
en gin
cro ssover</w>
com pre
chann els</w>
bro ken</w>
bo x</w>
b un
b at
appli qué
zipp ered</w>
war ming</w>
w ee
v ar
to w
ti p</w>
t ine</w>
sn owy</w>
sli p
show ca
seersu cker</w>
seam ed</w>
sc run
revi ated</w>
pro du
po ised</w>
pee p</w>
out fitted</w>
il ing</w>
ho mage</w>
empha si
du rability</w>
dri ft</w>
c to
c lea
bri ghtly</w>
bra ce</w>
b reviated</w>
at ic</w>
architec tural</w>
antiqu ed</w>
ang ing</w>
anatomi cal</w>
ab breviated</w>
y weight</w>
vari eg
varieg ated</w>
v yweight</w>
urb an</w>
un mi
u ra
susp ended</w>
su pima</w>
spu n</w>
spac e</w>
slip dress</w>
sli ght</w>
shar ply</w>
sculp ting</w>
s wa
rela x</w>
pi le</w>
n out</w>
moo d</w>
mini mal</w>
k les</w>
infu sed</w>
i s
ho les</w>
hea vyweight</w>
glitter y</w>
ev ent</w>
con e</w>
ca mp</w>
c lust
bur nout</w>
bo w
blu es</w>
b een</w>
authenti c</w>
ar ing</w>
z a</w>
vi cto
tho se</w>
ther mal</w>
th em</w>
ta n</w>
so ns</w>
sa ssy</w>
s ee
proporti ons</w>
ou ts</w>
not e</w>
multi colored</w>
mi cr
micr o</w>
luxuri ously</w>
legg y</w>
le n</w>
ke ted</w>
iti on</w>
ho t</w>
foo twear</w>
flu ffy</w>
exquis ite</w>
drea m</w>
c ent</w>
blan keted</w>
bask et</w>
b s</w>
a lone</w>
tu ri
tri o</w>
transiti ons</w>
sun dress</w>
se con
ro ck
pl ate</w>
n ever</w>
mo d</w>
len s</w>
kno t</w>
jew el</w>
fa ve</w>
em brace</w>
e p
di re
decor ative</w>
ch al
bu ck</w>
b led</w>
an o</w>
1 9
you r
your self</w>
wil d
wee k</w>
wa ves</w>
var sity</w>
unmi sta
tt ing</w>
th ery</w>
ta cti
sun shine</w>
summ er</w>
so mely</w>
sea sons</w>
rip stop</w>
refle ctive</w>
ra ised</w>
practi cal</w>
po st</w>
perfec ts</w>
ne ed</w>
multi ple</w>
ma in
low s</w>
ligh ts</w>
intri guing</w>
insul ated</w>
indu l
in ver
impre ssion</w>
hear ts</w>
hand somely</w>
glea m</w>
ga thers</w>
g run
g ly</w>
fo ld</w>
fla res</w>
fib ers</w>
ff s</w>
f oun
er a</w>
engin e
en gra
dro ps</w>
di ff
comb ines</w>
casc ad
car ry</w>
butt oned</w>
boo st</w>
bb ing</w>
any where</w>
6 0s</w>
wra pa
wrapa round</w>
wor ld</w>
wh at</w>
wea rable</w>
ura lly</w>
tem per
tacti le</w>
t es</w>
stree twear</w>
spec k
speck led</w>
sk at
sh ade</w>
scal ed</w>
s la
s af
rom atic</w>
ro ses</w>
refin ement</w>
re li
rand s</w>
panel ed</w>
nu buck</w>
medi um</w>
m ean</w>
length ening</w>
it es</w>
hi king</w>
fore ver</w>
fo cu
f an</w>
embelli sh</w>
elong ating</w>
ele c
decad ent</w>
cuto ffs</w>
cu d
co ordin
chi ev
c lip</w>
b lea
an ge</w>
zi ps</w>
wonder fully</w>
wh e
whe ther</w>
verti ble</w>
tra ces</w>
ti ght</w>
sur f</w>
st ill</w>
so ck</w>
sh run
s é</w>
ru n</w>
r y
pro f
organ za</w>
or say</w>
opu lent</w>
o w</w>
mo on</w>
mirro red</w>
main ta
le i
l un
inver ted</w>
g anci
ganci o</w>
fu turi
fin d</w>
exper tly</w>
engine ered</w>
de p
d on</w>
con vertible</w>
cin ch</w>
brilli ant</w>
bi ker</w>
bal l
an kles</w>
americ a</w>
ag onal</w>
yo ga</w>
win ter</w>
whi sp
victo rian</w>
unmista kable</w>
th on</w>
t oned</w>
sy stem</w>
so aring</w>
si c</w>
si a</w>
ren dered</w>
ra mid</w>
qu id</w>
py ramid</w>
par t
p ur
nigh t
nee ds</w>
n arrow</w>
monoch romatic</w>
li quid</w>
glin ting</w>
futuri stic</w>
fea ther</w>
f e
ev o
engra ved</w>
ele ments</w>
dai ly</w>
d anc
cor set</w>
con fi
com m
col lar
b ble</w>
a chiev
zigza g</w>
win g
wing tip</w>
warm er</w>
wa s</w>
sof tens</w>
simp li
shrun ken</w>
sat een</w>
sa ff
saff i
saffi ano</w>
rink les</w>
qu int
op en
o s</w>
o h</w>
nat urally</w>
na vy</w>
medalli ons</w>
mat e
mate las
matelas sé</w>
mar y</w>
lin er</w>
glea ms</w>
gen tle</w>
ess ory</w>
en ille</w>
dri ving</w>
dra ping</w>
dep th</w>
da pp
compre ssion</w>
ch enille</w>
band eau</w>
acc essory</w>
wi se</w>
tw in</w>
tu m
threa d
ther wise</w>
ta lly</w>
stri ke</w>
si es</w>
shi p</w>
se du
satur ated</w>
sand ed</w>
rever se</w>
quint essential</w>
prof es
pin tu
per son
pen ny</w>
pea ched</w>
o therwise</w>
mo de
meticu lously</w>
mat ch</w>
iri de
intri cately</w>
ing ly</w>
i sl
hea vy</w>
hand les</w>
h app
h an
gener ous</w>
g roo
fa st
el ed</w>
ear s</w>
di pping</w>
deli ver</w>
con tro
comple ments</w>
comb ination</w>
com bed</w>
clo thing</w>
chec ked</w>
center s</w>
cat ch</w>
bi b</w>
arti s
archi val</w>
appliqué s</w>
altern ative</w>
ac h</w>
z iness</w>
wra pping</w>
v ent</w>
u ty</w>
tow ering</w>
thread bare</w>
tan ned</w>
t ation</w>
stree ts</w>
shi eld</w>
s m</w>
ro me</w>
ripp ling</w>
ri ps</w>
re gular</w>
profes sional</w>
plun ge</w>
plu s</w>
out lines</w>
out door</w>
m or
k il
iride scent</w>
in u
in deli
i ma
hea t</w>
flu id
fi ed</w>
f ou
es n</w>
ener gi
drawst rings</w>
do esn</w>
co a
cle an
ck ly</w>
circ le</w>
bu bb
bro guing</w>
bea uty</w>
arti st</w>
app ro
ann ing</w>
wi cks</w>
vi sco
visco se</w>
tur ns</w>
tran spa
ta pe</w>
t est</w>
stand ard</w>
st eel</w>
slou ch</w>
shir ring</w>
re fine</w>
protec t</w>
poly est
polyest er</w>
p ad
mo ther</w>
m less</w>
l o</w>
isl and</w>
int ar
intar sia</w>
indeli ble</w>
hea ds</w>
gg le</w>
fron ts</w>
fi ery</w>
fea thery</w>
fabu lous</w>
f el
ev a</w>
equ al</w>
embo l
ele ts</w>
da pper</w>
crea ses</w>
con f
clo se</w>
clas p</w>
center ed</w>
bu ff
bree ze</w>
w eigh
vin es</w>
u ce</w>
to r</w>
t rea
t ar
sun set</w>
so lu
showca ses</w>
sho p</w>
ser ious</w>
scrat ch</w>
rink ly</w>
ri mless</w>
revers es</w>
par ties</w>
pain t</w>
pack able</w>
op tic</w>
oc ean</w>
no w</w>
monoch rome</w>
mo c</w>
lett uce</w>
l l
ho li
gli st
gli mm
ge l</w>
g r
fol ds</w>
exu des</w>
ex clu
en ed</w>
dr i</w>
dem i</w>
deligh tfully</w>
dai sies</w>
coun ter</w>
conveni ence</w>
colla bor
co ziness</w>
car ds</w>
bur st</w>
bo tan
be low</w>
ard ine</w>
acc ess</w>
zipp ers</w>
whip stitched</w>
we b</w>
vi an</w>
u vian</w>
u ses</w>
u ll</w>
transpa rent</w>
tra ced</w>
th ering</w>
sw ing</w>
sustain ably</w>
sp ring</w>
so me
sk ull</w>
sk i</w>
ri z
po ssi
per uvian</w>
pea ked</w>
pair ing</w>
origin al</w>
or ed</w>
o val</w>
night gown</w>
ni pped</w>
mo hair</w>
mer cer
mercer ized</w>
lu sh</w>
lu m
ligh ter</w>
il i</w>
gorge ously</w>
gi ft</w>
ga b
gab ardine</w>
fou nder</w>
fir st</w>
f s</w>
f al
exclu sive</w>
ener gy</w>
draw cord</w>
di agonal</w>
dazz le</w>
coun try</w>
conf etti</w>
co lum
clean ly</w>
cen tric</w>
c rinkly</w>
buff al
buffal o</w>
bi shop</w>
b y
a ma
wor ks</w>
wea ther
w est</w>
uni que</w>
un g</w>
u mb
twir l</w>
ti pping</w>
t ones</w>
sub st
styli zed</w>
st rea
sp anning</w>
sor t</w>
smoo thing</w>
si ble</w>
sh stro
s cub
scub a</w>
s ad
ri ff</w>
resist s</w>
py thon</w>
pintu cks</w>
pi ck</w>
p ster</w>
p in</w>
mul t
mu ch</w>
lo t</w>
lea f</w>
layer able</w>
it ed</w>
in ging</w>
hu g</w>
h on
gi ven</w>
g al</w>
fle x</w>
fashion able</w>
ext ends</w>
eas ant</w>
ear ly</w>
diff er
deta chable</w>
da y
cu p</w>
cascad ing</w>
ca pe</w>
c red</w>
bru shstro
br inging</w>
bo at</w>
ber mu
be come</w>
an a</w>
activ ity</w>
wa vy</w>
w rinkles</w>
w ri
vi sual</w>
vac a
ur y</w>
uni form</w>
tre es</w>
to a
tho mas</w>
swoo sh</w>
strateg ic</w>
sou th
sli ck</w>
skat er</w>
secon d</w>
sea t</w>
sea son
se ly</w>
rou tine</w>
rock studs</w>
rin ger</w>
ri g
produ ced</w>
pro n
pe ter</w>
p easant</w>
organ i
n e</w>
mon ili</w>
min ded</w>
mid sole</w>
mater ial</w>
lux ury</w>
je wel
iti sh</w>
intensi fy</w>
i ously</w>
ho riz
fle cked</w>
ex ude</w>
even ts</w>
end lessly</w>
dest ined</w>
d o</w>
cud dly</w>
cu lar</w>
cra f
coun ter
comple ted</w>
com part
clea r</w>
c all</w>
buck led</w>
br itish</w>
bermu da</w>
bat eau</w>
b li
b en
athle i
al most</w>
adven tures</w>
wal king</w>
wa ve</w>
w e</w>
vaca y</w>
tra cing</w>
torto i
tortoi se
tortoise shell</w>
te ly</w>
star ry</w>
sk ate</w>
show case</w>
rig id</w>
rev eal</w>
refre shing</w>
refre shes</w>
re sort</w>
ra ff
pleat ing</w>
pin tuck</w>
n ic
n app
meticu lous</w>
mess age</w>
me du
medu sa</w>
ma j
maj or</w>
ma de
made well</w>
lo s</w>
la zy</w>
it ely</w>
ima gin
gri ds</w>
fril led</w>
foun d
fa ir</w>
enri ches</w>
enri ched</w>
em s</w>
em er
do ll</w>
defin ed</w>
crea se</w>
contro l</w>
color fully</w>
ch ine</w>
ch ill</w>
ca sh</w>
blo cky</w>
bir d</w>
b il
ati onal</w>
athlei sure</w>
achiev e</w>
a bra
y pti
ypti an</w>
work outs</w>
woo den</w>
whi ch</w>
w ed
ve lou
velou r</w>
ve lo
un done</w>
u tt
tre foil</w>
tran slu
translu cent</w>
tran s
tra iling</w>
tr eat
to o
th em
swir l</w>
st ine</w>
sp rou
snu g</w>
silhou ett
shad owy</w>
sc in
rela x
refin es</w>
re imagin
po siti
pe pper</w>
p illow
p h</w>
over lays</w>
on ce</w>
napp a</w>
mon k</w>
mid night</w>
ma in</w>
ma id</w>
li the</w>
li st</w>
lat ti
j ane</w>
it ting</w>
inclu des</w>
holi day</w>
ho l
g er
fu ss</w>
fl att
flatt en</w>
fil led</w>
en jo
embellish ments</w>
eg yptian</w>
ea ls</w>
dire ctional</w>
design s</w>
dec i
dapp led</w>
cre sted</w>
cou ch</w>
con diti
con c
collabor ation</w>
by doll</w>
brea ker</w>
be li
ba bydoll</w>
at ter</w>
ar m
wind breaker</w>
wat ery</w>
wal k</w>
w ings</w>
ven ted</w>
un tucked</w>
tur ned</w>
tu mb
transiti on</w>
te x</w>
sett ing</w>
row ing</w>
rom me
reli able</w>
ra ls</w>
qui ckly</w>
quar t
puff y</w>
prec ious</w>
pow er
par ts</w>
pa ys</w>
out lined</w>
oo t
mo tion</w>
len ci
lenci ag
lenciag a</w>
lea fy</w>
k an
ir c
inten sity</w>
i es</w>
hy bri
hu gs</w>
highligh ted</w>
heigh tens</w>
heigh ten</w>
glimm ering</w>
geometri es</w>
g romme
g ilt</w>
et ate</w>
do me</w>
d ang
cour se</w>
contou rs</w>
comb at</w>
colum n</w>
chan ge</w>
ch anging</w>
buck les</w>
brea k</w>
botan ical</w>
blosso m</w>
bac ked</w>
ba lenciaga</w>
al lows</w>
ador ned</w>
ac etate</w>
abra sions</w>
with in</w>
whisp er</w>
wh o
wel come</w>
tran sc
tra il</w>
th row</w>
temper ature</w>
tech n
ta bs</w>
swee tens</w>
su ally</w>
ss é</w>
ss es</w>
spa gh
spagh etti</w>
shor ter</w>
sha ker</w>
s way</w>
ru mp
ro o</w>
rela xes</w>
reinfor ced</w>
ra y
ra iny</w>
r is</w>
punctu ates</w>
pron oun
pronoun ced</w>
pri stine</w>
po pped</w>
pli ssé</w>
p ho
open work</w>
oot d</w>
on ly</w>
moti fs</w>
mor ning</w>
mm er</w>
mid riff</w>
mer maid</w>
mem br
membr ane</w>
le ft</w>
l ling</w>
kan ga
kanga roo</w>
jo y
hybri d</w>
horiz on
hoo k</w>
ho me</w>
hi pster</w>
hea d
gor ing</w>
go res</w>
fi sh
fac tor</w>
enc irc
dra pes</w>
defin ition</w>
co up
co ating</w>
ca li
blo cks</w>
blea ched</w>
be z
balanc ed</w>
ang ele
and y</w>
anch ored</w>
ama zing</w>
ad ap
ac com
a r</w>
3 d</w>
warm ed</w>
vibr antly</w>
vi sually</w>
ve gan</w>
vari ety</w>
u sual</w>
ti ll
ti er</w>
ta ls</w>
t sm
stro ll</w>
st al
sp ri
smo ky</w>
show sto
sedu ctive</w>
sea led</w>
scin till
sad dle</w>
s cu
ret ation</w>
r ying</w>
prec ise</w>
pla ces</w>
pe tals</w>
p retation</w>
off ic
no se</w>
man ia</w>
ma x</w>
logo mania</w>
inter pretation</w>
influ enc
in t</w>
happ y</w>
ha zy</w>
gri p</w>
gg y</w>
g un
found ation</w>
f ts</w>
do bby</w>
disc reet</w>
decor ate</w>
de constructed</w>
d rin
cur rent</w>
craf tsm
cor ds</w>
coordin ating</w>
comp li
cir cular</w>
ch ino</w>
ch er
bu s
bu il
bow s</w>
bel ly</w>
angele s</w>
adven ture</w>
ac tive</w>
y el
wil dly</w>
wh it
ventil ation</w>
ve ge
vege table</w>
torto ise</w>
to pper</w>
te a</w>
t ed
ted dy</w>
sof ter</w>
silver tone</w>
sel ling</w>
scintill ating</w>
sc rip
s cro
relea se</w>
re pti
ray on</w>
po m
par k</w>
maximi ze</w>
lo ts</w>
lo ft</w>
li z
li vens</w>
li ve</w>
k et</w>
in v
in j
in de
hou rs</w>
horizon tal</w>
hor se
h our</w>
g ett
fri ends</w>
flo cked</w>
fla shy</w>
fea thers</w>
ey elets</w>
every one</w>
even ings</w>
et a</w>
est ing</w>
er rands</w>
er ly</w>
en tly</w>
dr y
distingui shed</w>
d é
cur ly</w>
cti c</w>
crow ns</w>
creat ing</w>
cover y</w>
conditi ons</w>
car ved</w>
car rying</w>
c ad
bu l
boo sted</w>
bea t</w>
at ors</w>
ap ron</w>
amp le</w>
yel low</w>
we bbing</w>
vi bra
vibra m</w>
vi a</w>
utt erly</w>
upgra ded</w>
u v</w>
twir ly</w>
tri ple</w>
transc end</w>
th ou
ta king</w>
ta ff
taff eta</w>
ta che</w>
ste pped</w>
st or
sprou t</w>
sp l
sp ade</w>
sou tache</w>
slo ts</w>
sk etched</w>
simpli city</w>
se par
sc re
ro tation</w>
reimagin ed</w>
re covery</w>
radi ant</w>
provi ding</w>
pre p</w>
pra iri
prairi e</w>
pom po
piec ed</w>
pic ture</w>
pi ped</w>
on ing</w>
offic ial</w>
no ti
n al</w>
minimali sm</w>
men ted</w>
ligh ten</w>
lat est</w>
lac ed</w>
kin d</w>
ki cks</w>
i on</w>
highligh ting</w>
glist ening</w>
g len</w>
fun ctional</w>
fo li
flo rals</w>
flat lock</w>
fla w
fea ther
fal ls</w>
f ancy</w>
ext end</w>
embellish ment</w>
du ffle</w>
dou bles</w>
differ ent</w>
dar ling</w>
craftsm an
craftsman ship</w>
com mu
chee ta
ch in
celebr ate</w>
casc ade</w>
bro ad</w>
brigh tened</w>
bi ke</w>
bez el</w>
ba ro
b ling</w>
arm holes</w>
ador ns</w>
wild flowers</w>
weigh ted</w>
wed ding</w>
tw ee
twee dy</w>
th s</w>
t it
t in
t ear
t ea
sur f
stu di
stain less</w>
st rand</w>
spo t</w>
spla shes</w>
sli pp
silhouett es</w>
sculp t</w>
s its</w>
run way</w>
rump led</w>
ruff ly</w>
ro pe</w>
ribb ons</w>
relea sed</w>
refle c
re gu
pre p
prep are</w>
pl ans</w>
piec es</w>
out do
off ering</w>
moo dy</w>
me try</w>
me l</w>
lun ch</w>
lett er</w>
ki cked</w>
is le</w>
inter esting</w>
i le</w>
i f</w>
ho ld</w>
hand bag</w>
h ard</w>
ga thering</w>
g rowing</w>
fol ded</w>
flaw less</w>
fla g</w>
feather weight</w>
embol den</w>
dow n
d les</w>
cri sp
comple tes</w>
co zi
cheeta h</w>
ch ro
c andy</w>
bus iness</w>
bra ss</w>
boa sting</w>
baro que</w>
ac e</w>
0 0</w>
- inspired</w>
z z</w>
z able</w>
wa xed</w>
v c</w>
uni vers
u sed</w>
tri mming</w>
tri angular</w>
tra pe
to tally</w>
ti me
t ory</w>
t back</w>
swee tness</w>
subst anti
substanti al</w>
su rely</w>
stra w</w>
sti ck</w>
sta ge</w>
st el
st eal</w>
sp ot
ser ve</w>
se tback</w>
sa me</w>
roo ts</w>
ri v
reta ins</w>
raff ia</w>
r hin
rhin est
pro min
prett i
pla stic</w>
pa u
p vc</w>
or k</w>
nic ely</w>
n early</w>
moderni ze</w>
m c
jo h
in lays</w>
i f
h ee
gromme ts</w>
gra ph</w>
gra b</w>
go t</w>
ga p</w>
g ear</w>
fro thy</w>
fo x</w>
flo ra</w>
flo ating</w>
f end
fend i</w>
ey es</w>
ext ra
emphasi ze</w>
elong ate</w>
e pau
du sted</w>
dri es</w>
di als</w>
dang ling</w>
d ent</w>
cre st</w>
coo ler</w>
circ les</w>
cap tures</w>
cal ling</w>
cad y</w>
c y</w>
c o</w>
bli ss
beli ev
avi ators</w>
at ta
ar i</w>
anc es</w>
al low</w>
accom mod
y s
un structured</w>
to ggle</w>
th read</w>
techn ical</w>
tech ni
tar tan</w>
t on
studi o</w>
stru ction</w>
stri al</w>
st ems</w>
spla shed</w>
sp rin
sp on
south western</w>
sof ten</w>
so lo</w>
sli ms</w>
si bility</w>
shad ow</w>
seam lessly</w>
resist ance</w>
regu l
re st</w>
pu ck
pro o
pin point</w>
pan ka</w>
pad s</w>
p adding</w>
on to</w>
on o</w>
occa sions</w>
o panka</w>
o m</w>
no stal
n 5</w>
moder ate</w>
m bo
ligh t
li stic</w>
la u
la ble</w>
k ly</w>
k im
kim ono</w>
indu strial</w>
inde xes</w>
hi de</w>
h is</w>
h er</w>
fron ted</w>
focu sed</w>
flouri shes</w>
fle ec
fleec y</w>
fle cks</w>
fel ted</w>
favor ites</w>
fast ened</w>
es que</w>
en am
emphasi zes</w>
embelli shes</w>
elec tric</w>
drea ms</w>
di es</w>
de struction</w>
de f
de dly</w>
dar ts</w>
cushion s</w>
cu shion</w>
cro wn</w>
cou ture</w>
co w
clou d</w>
cal ity</w>
ca bles</w>
ball gown</w>
ba sic</w>
b in
b ec
ac id</w>
3 9</w>
1 0</w>
woo d</w>
wi ck</w>
whim sy</w>
vo l
tem ps</w>
ta in</w>
t y
ste ps</w>
stap les</w>
sta bility</w>
st ers</w>
st amp</w>
smoo thes</w>
sli mmed</w>
showsto pping</w>
sc atter</w>
ri es</w>
refre shed</w>
re less</w>
re co
rac es</w>
ra ge</w>
r ang
qu ir
protec tive</w>
proo f
pre sen
practi cality</w>
poli shes</w>
pol it
po ise</w>
op tim
n et</w>
moderni zed</w>
mi s
me mo
lust er</w>
lon don</w>
light ning</w>
li es</w>
joy ful</w>
jo in</w>
ho w</w>
hin d</w>
hi ker</w>
her e</w>
gu ss
grun gy</w>
grun ge</w>
gli de</w>
ge taway</w>
g low</w>
fol k
fe line</w>
f ade</w>
ett er</w>
er o
equ ally</w>
epau lets</w>
en tr
ea gle</w>
dé colle
deci dedly</w>
dec o</w>
de light</w>
crisp ly</w>
collar less</w>
clust ers</w>
ck le</w>
ch o</w>
ca ge</w>
c ru
c rinkle</w>
c r</w>
bu bble</w>
bro w
bri m</w>
bo ar
blu sh</w>
bliss fully</w>
be hind</w>
b etter</w>
b ed
ar ri
an g</w>
accommod ate</w>
ac k</w>
ê pe</w>
é lan
élan ge</w>
ys l</w>
wri st</w>
win try</w>
wi reless</w>
whisk ers</w>
we bbed</w>
under n
undern eath</w>
tri color</w>
treat ment</w>
tou chable</w>
to pping</w>
tear drop</w>
tan kini</w>
suit case</w>
stream line</w>
stat u
st al</w>
spir ited</w>
sp ice</w>
some thing</w>
slo pes</w>
sl ung</w>
si n</w>
si an</w>
shimm ers</w>
se e</w>
scrun ched</w>
saf ari</w>
run ner</w>
rou gh
rol ler</w>
rev eals</w>
rev ealing</w>
ret ention</w>
repti le</w>
redu ce</w>
re mini
re fer
ra ys</w>
r glass</w>
pla in</w>
perfec tion</w>
pan a
pana che</w>
pa ra
p y</w>
organi z
or ange</w>
optim al</w>
o b
mon ths</w>
mode st</w>
min gly</w>
memo rable</w>
me an
maximi zes</w>
m élange</w>
m er</w>
li ven</w>
li c</w>
kil ter</w>
intensi fies</w>
illustr ated</w>
ic y</w>
hou rglass</w>
h its</w>
groo vy</w>
gra du
gra ces</w>
gen ce</w>
fresh water</w>
fo cal</w>
ex em
exem pli
et ball</w>
enjo y</w>
en velo
do r</w>
cur b</w>
cul ture</w>
cr êpe</w>
cont inu
confi dent</w>
clou dy</w>
cal ls</w>
bou qu
bo at
bil ities</w>
bea d</w>
be comes</w>
bask etball</w>
balanc ing</w>
b o</w>
b le
au tum
atta ched</w>
appro ach</w>
and s</w>
acc es
a li
wh at
what ever</w>
vin e</w>
ve ils</w>
twi se</w>
tt e</w>
trea ds</w>
tra ining</w>
tou gh
to ri
to mmy</w>
th umb
sym bo
swee tened</w>
stree twise</w>
statu esque</w>
st ory</w>
so a
smo king</w>
si ze</w>
si de
sen sual</w>
sen sibility</w>
run s</w>
rou lea
roulea u</w>
relax ing</w>
reco g
recog ni
promin ent</w>
polit an</w>
person ality</w>
pee ks</w>
pe pp
p sy
out fits</w>
origin ally</w>
non chal
ni a</w>
n ic</w>
n ers</w>
moderni zes</w>
min d</w>
mer ge</w>
mat ched</w>
m el
m b</w>
lei surely</w>
le v
lar ger</w>
k ers</w>
jewel ed</w>
i phone</w>
ho bo</w>
head band</w>
hea vi
h eat
gu m</w>
for nia</w>
fashion s</w>
exquis itely</w>
enam eled</w>
em blaz
ed ging</w>
e x</w>
décolle tage</w>
do min
dis appear
de e
d ding</w>
contra sts</w>
confi den
compart ment</w>
comb ining</w>
coa stal</w>
cho ker</w>
chin os</w>
cher ry</w>
chec ker
cha mp
cali fornia</w>
c ca
bro w</w>
arti cul
anch ors</w>
anatomi cally</w>
an ts</w>
af ter
a ra
a like</w>
3 0s</w>
- blend</w>
y ears</w>
wor king</w>
war ms</w>
vi sible</w>
tru sty</w>
tren ds</w>
tra in</w>
tra ils</w>
too thy</w>
ton gue</w>
toa sty</w>
to ssed</w>
time piece</w>
thou gh
ta ils</w>
t on</w>
t ing
swa ying</w>
sw ep
swep t</w>
sun ray</w>
sta ying</w>
st on
ston e
st ack</w>
spla y</w>
si li
sili cone</w>
sh ee
sh e
s wit
ro sy</w>
ro ad</w>
rin ged</w>
ri ding</w>
remini scent</w>
recogni zable</w>
proof ing</w>
pre ci
pillow y</w>
per ky</w>
par ti
pa ri
or a</w>
off set</w>
nu bby</w>
nostal g
nostalg ic</w>
ne y</w>
n or
multi directional</w>
mo cca
mocca sin</w>
me ga</w>
mar king</w>
mar bled</w>
mainta ins</w>
liz ard</w>
layer ability</w>
j un
indul gence</w>
in a</w>
i me</w>
hol ds</w>
hi bi
heavi ly</w>
gol f</w>
foli age</w>
fluid form</w>
fla shes</w>
fier c
fi xed</w>
fi eld</w>
fabri cs</w>
f ting</w>
energi ze</w>
en ding</w>
eas es</w>
eas ed</w>
e y</w>
e li
dra wn</w>
do w</w>
disappear s</w>
dis c</w>
den sity</w>
dee ply</w>
de ser
day long</w>
danc ing</w>
d on
cour t</w>
con ver
comple tely</w>
co smo
ci ously</w>
checker board</w>
che er
chal ky</w>
c y
bul k</w>
buil d</w>
botto m</w>
be loved</w>
ba gu
articul ated</w>
ar rows</w>
an ted</w>
ad o</w>
activ ities</w>
acces so
accentu ating</w>
ab solu
a qu
5 0s</w>
z o
you rs</w>
who le</w>
whip stitching</w>
weather proof</w>
vers ace</w>
un even</w>
un believ
twin kle</w>
tur n
tum ble</w>
tt o
tto man</w>
tt ime</w>
tru ly</w>
transiti onal</w>
tim ele
timele ssly</w>
ti le</w>
ta li
sw ea
stu n</w>
strip s</w>
sto wing</w>
st ry</w>
st re
spark les</w>
sp ine</w>
sou r
so ir
soir é
sn ow</w>
sm al
slipp ery</w>
sli mmer</w>
shi el
sh el
scrip t</w>
sa ss</w>
s een</w>
rin se</w>
re l</w>
r ated</w>
r ange</w>
psy che
psyche deli
pretti est</w>
practi cally</w>
pock eted</w>
person al</w>
pepp ered</w>
pari sian</w>
overla pping</w>
or nam
o ttoman</w>
o dor</w>
no graph</w>
nigh ttime</w>
ne o
mu sc
mo di
mar ch</w>
ma y</w>
m y
m oun
low ing</w>
lin ger
linger ie</w>
lin e
line up</w>
li lly</w>
latti ce</w>
l ls</w>
l ate</w>
jun gle</w>
influ ence</w>
impre ss</w>
hon ey
gra ph
go s</w>
g on
fun cti
fi l</w>
f ire</w>
en ts</w>
ec le
ea led</w>
dre ssed</w>
di splay</w>
di rec
di ap
dar ted</w>
d ream
d angle</w>
cre scent</w>
coup é</w>
cor por
collar bone</w>
cla ss</w>
chro nograph</w>
bir ds</w>
ba u
b lends</w>
at ures</w>
arri ves</w>
adju st</w>
a light</w>
a k
a head</w>
2 0
wind proof</w>
wi d
whit t
w et</w>
univers ally</w>
un lined</w>
turn lock</w>
tro du
thumb hole</w>
th en</w>
ta per</w>
swi sh</w>
surf er</w>
strateg ically</w>
sti er</w>
sprin gy</w>
spot light</w>
spla shy</w>
solu tion</w>
slu mber</w>
sl anted</w>
sk ir
sil ken</w>
sho t</w>
season less</w>
se ball</w>
scro lling</w>
sc and
s inu
s es
s cuffs</w>
rom ances</w>
rin sed</w>
quart et</w>
qu es</w>
pur ple</w>
pun to</w>
pun ches</w>
pun ch</w>
pul ls</w>
pu sh</w>
psychedeli c</w>
pri ma
prima loft</w>
pre ne</w>
pow ered</w>
po t
pla ce</w>
pin ea
pinea pp
pi ck
pe tal</w>
pack ing</w>
pa st</w>
p il
organiz ation</w>
ordin ary</w>
opti cal</w>
noti ced</w>
no d</w>
neck ed</w>
mult i</w>
mul berry</w>
mu sic</w>
mat ter</w>
m ill</w>
m en</w>
loo ps</w>
lo e
loe we</w>
li zed</w>
lev i</w>
len ce</w>
lei do
leido sco
ka leidosco
k en
jo ins</w>
j et</w>
it o
in te
in corpor
i sh</w>
hugg ie</w>
high er</w>
har ness</w>
han ous</w>
h un
gun metal</w>
gui pure</w>
go d
god de
fli es</w>
festi val</w>
fabu lously</w>
f ru
ext re
ep ito
entr ance</w>
enti al</w>
en s
en a
ena mel</w>
eff uses</w>
ecle ctic</w>
drin ks</w>
dre ssing</w>
draw s</w>
do es</w>
diap hanous</w>
deli ciously</w>
dec ked</w>
d ant</w>
crow d</w>
conc ealed</w>
con nec
com pan
colla red</w>
clo g</w>
cli mb
chec k
celebr ating</w>
bu sy</w>
bu stier</w>
brushstro ke</w>
bro o
bro ad
br un
br an
bott les</w>
bon ded</w>
bo ss</w>
blan ket</w>
ben eath</w>
bea ch
bal con
back drop</w>
ba seball</w>
autum nal</w>
artis an</w>
ar ms</w>
an k</w>
after no
a le
wid th</w>
wher ever</w>
week day</w>
wea rability</w>
wa shes</w>
wa le</w>
w ed</w>
vi e
ver y</w>
u ps</w>
tri me
traditi on</w>
to tal</w>
ti cally</w>
t ney</w>
t a</w>
swea ts</w>
sur pri
stor m</w>
stel la</w>
st ring</w>
st rands</w>
spri gs</w>
spi ke</w>
spec i
sl ant</w>
sign ia</w>
si t</w>
shar k</w>
see mingly</w>
season al</w>
scallo ps</w>
sav ille</w>
row ed</w>
ro n
riv ets</w>
ri n</w>
ri f
rep eat</w>
re spon
re gi
re gal</w>
puck ered</w>
proporti oned</w>
pre ssed</w>
pot ential</w>
possi bilities</w>
po pu
pea k</w>
par ed</w>
p tion</w>
oversi ze</w>
out line</w>
oun ds</w>
opu lence</w>
o mini</w>
o iled</w>
not es</w>
ni ce</w>
neo prene</w>
nam ed</w>
mis matched</w>
mi xes</w>
mess en
messen ger</w>
mc car
mccar tney</w>
ma ri
ma ke
make over</w>
m es</w>
li e</w>
le gum</w>
le gen
lan gu
kno w</w>
ja gged</w>
is su
inte gr
in signia</w>
impre ssi
illustr ates</w>
illumin ated</w>
i st</w>
horse bit</w>
honey com
honeycom b</w>
ho me
high ly</w>
hibi scu
h anging</w>
gra bbing</w>
godde ss</w>
fu ses</w>
fron ds</w>
fierc ely</w>
fa st</w>
exu ber
exempli fies</w>
er o</w>
envelo pe</w>
em ble
eli min
ea ble</w>
e cho
dream land</w>
do g</w>
disc o</w>
cra ves</w>
cosmo politan</w>
coo l
con versati
comm and
cock tails</w>
check ered</w>
ch ri
ch af
celebr ates</w>
cap ture</w>
ca r</w>
bur sting</w>
bubb legum</w>
bro gue</w>
brid ges</w>
brai ding</w>
boy shorts</w>
bor rowed</w>
boo k</w>
billow ing</w>
bec au
becau se</w>
be ing</w>
balcon ette</w>
bal main</w>
b ear
atter s</w>
ar m</w>
app ear</w>
anti que</w>
and er</w>
amon g</w>
al ready</w>
ak ris</w>
- cushioned</w>
work ed</w>
wo w</w>
wild flower</w>
w in</w>
vi ar</w>
venti onal</w>
ven ed</w>
v es
v a</w>
un a
ultra light</w>
ul ls</w>
u gg</w>
tur y</w>
tri ps</w>
trape ze</w>
to day</w>
tho rough
thorough ly</w>
them ed</w>
te c</w>
ta g</w>
ta bbed</w>
suppor ted</w>
stri kes</w>
stone washed</w>
sti al</w>
spor t
speci ally</w>
smal ler</w>
sla shed</w>
skir ted</w>
ski ms</w>
sk ulls</w>
sinu ous</w>
shiel ding</w>
sen ds</w>
sea side</w>
scrat ches</w>
sa ic</w>
ripp les</w>
ripp led</w>
ri ed</w>
resi st</w>
resi n</w>
re tte</w>
re l
qui e
quie tly</w>
pri de</w>
popu lar</w>
poo ling</w>
pic nic</w>
per ched</w>
para l
paral le
pan ties</w>
ou fla
ortho tic</w>
orn ings</w>
nu mer
modi fied</w>
mo saic</w>
micro modal</w>
m ornings</w>
m ly</w>
m and
loun ge
lounge wear</w>
lin ear</w>
ligh tens</w>
lif e
legen dar
legendar y</w>
kno ts</w>
kin gly</w>
influenc er</w>
in trodu
gro wn</w>
go at
goat skin</w>
gla ise</w>
gla di
gau ze</w>
fun ction</w>
focu s</w>
flutt ers</w>
fer oc
er ves
en vi
en ted</w>
elec tri
eff erves
dro om</w>
draw er</w>
distin ction</w>
deser t</w>
der ie</w>
def tly</w>
cy lin
custo mi
cu ts</w>
cu e</w>
cti vely</w>
cra dles</w>
cover ing</w>
cor ners</w>
con ventional</w>
co in</w>
cli mb</w>
char ge</w>
ch lo
cen tury</w>
cele stial</w>
cam oufla
ca viar</w>
bro derie</w>
boun ce</w>
bol t</w>
boar droom</w>
bo ardw
boardw al
boardwal k</w>
bagu ette</w>
avi an</w>
at ely</w>
arti stic</w>
ar rang
app ealing</w>
ap art</w>
ani um</w>
an other</w>
an glaise</w>
ale x
accen ting</w>
ab un
y ork</w>
win ner</w>
win ged</w>
wa sh
vo ile</w>
vi e</w>
ventil ated</w>
v ski</w>
un for
unfor gett
unforgett able</w>
umb rel
twi ce</w>
tumb ling</w>
tu ally</w>
tri bu
transiti oning</w>
trans forms</w>
to s</w>
to oth</w>
tit anium</w>
ti re</w>
th in
text uring</w>
ter wear</w>
ten n
tenn is</w>
tea m</w>
t ino</w>
t ex
t attered</w>
swir led</w>
swee ps</w>
swa ro
swaro vski</w>
star ts</w>
st ate</w>
spi res</w>
sp ent</w>
soa k</w>
shee p
sheep skin</w>
sh oo
scallo p</w>
sca pe</w>
s and</w>
s al
rou gh</w>
ro ns</w>
ri ve
ri de</w>
ri c</w>
refer ence</w>
rea ding</w>
rain coat</w>
positi on</w>
pompo m</w>
po st
po se</w>
play ing</w>
pin striped</w>
pick stitching</w>
pi cked</w>
pho to</w>
pea ce</w>
pe bble</w>
pat ented</w>
pad lock</w>
pack s</w>
p t</w>
p ap
ou terwear</w>
or th
o pa
non sense</w>
n ear</w>
multi color</w>
monogra mmed</w>
mon cle
moncle r</w>
mm et</w>
mini m
minim ally</w>
micro bi
microbi al</w>
mi k
mik ado</w>
mee t</w>
mand a
manda rin</w>
mag ical</w>
lo ving</w>
le st</w>
lac eless</w>
la st</w>
l and
ki ss</w>
k at</w>
joh n
irresisti bly</w>
inter tw
inj ected</w>
in spires</w>
in ity</w>
in iti
il ls</w>
i kat</w>
hibiscu s</w>
gu est</w>
gro mmet</w>
goo dy
goody ear</w>
go de
gli sh</w>
gladi ator</w>
gg ing</w>
fu ture</w>
fre shly</w>
for med</w>
flir t
fla min
f ati
exagger ate</w>
er al</w>
enti re</w>
en glish</w>
embo dies</w>
emblaz oned</w>
el ling</w>
ear th</w>
e ous</w>
dra w</w>
down town</w>
disc s</w>
dire ction</w>
decor ated</w>
cu tting</w>
cro s
compli ments</w>
comple men
command ing</w>
co t</w>
co ral</w>
co des</w>
co ach</w>
clo ck</w>
car ried</w>
car bon
camoufla ge</w>
ca pped</w>
ca mer
c ade</w>
bun ny</w>
broo ch</w>
bro cade</w>
bran ches</w>
bra ssy</w>
br eath</w>
bouqu ets</w>
boun d</w>
bor ders</w>
boat neck</w>
bau bles</w>
b lun
b len
ac tion</w>
a le</w>
a ff
zi pped</w>
woo len</w>
woo l
win dow</w>
wal ks</w>
w s</w>
vi g
vac eous</w>
ur a</w>
un conventional</w>
u te</w>
tumb led</w>
tu cking</w>
tru tech</w>
tre e</w>
ti ps</w>
ti dy</w>
thon gs</w>
tan tali
tantali zing</w>
ta ping</w>
ta le</w>
sy n
sumptu ously</w>
stri kingly</w>
sto rage</w>
st ore</w>
st ee
st ea
squ a
spli ced</w>
spl attered</w>
snu ggle</w>
smoo th
smar tens</w>
si zz
shre dding</w>
show y</w>
show ers</w>
sh rou
sh at
ses sion</w>
sem i
semi precious</w>
sem bles</w>
sca ly</w>
sc iously</w>
sand als</w>
s end</w>
s ar
sar tori
rive ting</w>
rin ging</w>
rhinest ones</w>
revers ed</w>
rep eat
reinfor ce</w>
reflec ts</w>
refle ct</w>
re mix</w>
r i</w>
quir ky</w>
quart z</w>
pun k</w>
power ful</w>
pon cho</w>
poly carbon
polycarbon ate</w>
per t</w>
pend ants</w>
pe t
pap er</w>
pal ms</w>
p ro</w>
outdo ors</w>
orth a
ortha heel</w>
or t</w>
opa que</w>
on ality</w>
ne west</w>
na vig
mult itude</w>
mol ds</w>
mo m</w>
mi es</w>
mer ges</w>
men tally</w>
me ant</w>
m ic</w>
m ful</w>
m any</w>
m ac
lu sciously</w>
li sh</w>
li g
le gged</w>
kn itting</w>
kn if
knif e</w>
kil tie</w>
kee per</w>
it i</w>
inter woven</w>
indul ge</w>
illumin ates</w>
i con</w>
home spun</w>
hee led</w>
har mful</w>
h e
guss et</w>
gu ar
gradu ated</w>
gra iny</w>
gra ff
graff iti</w>
gir ly</w>
g rand
g mented</w>
fu sion</w>
folk lo
fol do
foldo ver</w>
float s</w>
flatter y</w>
fla me</w>
fi sh</w>
fati gue</w>
fashion ably</w>
f r
f light</w>
es ses</w>
envi ron
energi zes</w>
emble m</w>
ear ring</w>
du sky</w>
du o</w>
dou bled</w>
don ning</w>
di vi
de vi
danc es</w>
cur vaceous</w>
cros shat
cow girl</w>
counter point</w>
cor ded</w>
confiden ce</w>
compart ments</w>
compan ion</w>
comm and</w>
com ing</w>
co al</w>
clust ered</w>
clas sy</w>
cheer ful</w>
charac ter
cha se</w>
ch on</w>
car ry
cap ri</w>
camer a</w>
ca ged</w>
bur sts</w>
brushstro kes</w>
bo ys</w>
blen ded</w>
at tire</w>
asymmetri cally</w>
arrang ed</w>
anti microbial</w>
anch or</w>
amp ed</w>
a b</w>
5 0
3 6
2 0</w>
1 00</w>
z er</w>
y l</w>
work days</w>
wonder ful</w>
wi der</w>
wh ale</w>
water proofing</w>
wash able</w>
w tooth</w>
w r
w er
wer e</w>
vor y</w>
vivi dly</w>
ven e
vene ti
veneti an</w>
velv et
velvet een</w>
va len
valen tino</w>
v ans</w>
up town</w>
umbrel la</w>
tt on
trous er</w>
trime sters</w>
tri p</w>
trans form</w>
tr o</w>
tor chon</w>
to ward</w>
though tfully</w>
tex tile</w>
temper atures</w>
temp le</w>
techni que</w>
tass eled</w>
ta pe
tape stry</w>
t ured</w>
t sy</w>
t atter
swir ly</w>
super fine</w>
su ch</w>
struc tures</w>
stro yed</w>
stri de</w>
stream lines</w>
st run
strun g</w>
sport swear</w>
sp eed</w>
sp ans</w>
smooth ly</w>
si mul
showca sing</w>
sho pper</w>
shad ow
sett ings</w>
ser iously</w>
ser en
secon ds</w>
se ed</w>
sculp ts</w>
sco t</w>
scand in
scandin avian</w>
sartori al</w>
sa wtooth</w>
s mi
s ele
ry lic</w>
roman tically</w>
ro y
rib s</w>
rever e</w>
relea sing</w>
reflec ting</w>
rea lly</w>
rea l</w>
re sul
re n</w>
radi ate</w>
ra bb
r ho
por tu
pompo ms</w>
po ses</w>
pet ite</w>
pat h</w>
p ic</w>
p an</w>
outdo or
out lining</w>
or t
no thing</w>
nec ess
n ched</w>
musc le</w>
micro dots</w>
mi ss</w>
mee ting</w>
mbo o</w>
mainta ining</w>
ma u
ma scot</w>
ma chine</w>
m é</w>
m ou
m eas
loo ped</w>
lo bes</w>
lif ting</w>
li mit
lea ve</w>
lat ex</w>
lar ly</w>
lap top</w>
langu id</w>
jo l
jewel ry</w>
integr ated</w>
int enti
initi al</w>
influenc es</w>
in seam</w>
ic s</w>
i vory</w>
hun ter</w>
hi story</w>
hea ts</w>
h ei
hei ghts</w>
gr eat
glo ve</w>
gla zed</w>
gi ate</w>
gg er</w>
gett ing</w>
geo metry</w>
ga la
functi onality</w>
fre ely</w>
fre e
for m
for giving</w>
fo iled</w>
fo am
foam -cushioned</w>
flirt ati
fla ring</w>
fish er
ff e
ffe e</w>
femin inity</w>
fac es</w>
f unky</w>
ey e
evo ke</w>
es se</w>
enli vened</w>
emer ge</w>
embol den
em brac
embrac es</w>
efferves cent</w>
ed ed</w>
easi er</w>
e u
e tro</w>
du ster</w>
du ck</w>
dri zz
dre nched</w>
do m</w>
divi ded</w>
dis appear</w>
direc t</w>
di y</w>
di le</w>
de stroyed</w>
de pen
dar kly</w>
dai sy</w>
da shes</w>
da s</w>
d ling</w>
cro tch</w>
cro co
croco dile</w>
cro che
croche ted</w>
crea sed</w>
cozi est</w>
coo ling</w>
comp ri
colle giate</w>
coa st</w>
co tton
clust er</w>
cla d</w>
champ ion</w>
ch ang
carry all</w>
c yc
butter flies</w>
brun ch</w>
bree zes</w>
boo sts</w>
bon ing</w>
bo iled</w>
blu shing</w>
bla ir</w>
bin ding</w>
bi sec
ber t</w>
bel ts</w>
be jeweled</w>
be gging</w>
be ani
beani e</w>
bar be
ball park</w>
bal listic</w>
ba mboo</w>
b ite</w>
b i</w>
b et</w>
asym metry</w>
artis an
artisan al</w>
archi ves</w>
ar tsy</w>
americ ana</w>
ador n</w>
accesso ri
ac rylic</w>
absor ption</w>
4 0s</w>
z o</w>
wo men</w>
whitt ling</w>
vol co
volco m</w>
vie w</w>
ver me
verme il</w>
ven chy</w>
va i
vai lable</w>
up scale</w>
unbeliev ably</w>
una ba
un finished</w>
u gg
twir ling</w>
tribu te</w>
trea d
tre sses</w>
tra v
tou ched</w>
to mbo
tombo y</w>
th ic</w>
techni ques</w>
te thered</w>
tatter s
tatters all</w>
ta in
ta g
t reat</w>
t ings</w>
t eal</w>
t ary</w>
sym metri
swit ch</w>
summ er
su eded</w>
stret ches</w>
stre wn</w>
sto ck</w>
st ly</w>
spac er</w>
spa in</w>
sp lo
splo t
sour ced</w>
so na
shre ds</w>
shir ting</w>
shel ls</w>
sha ke</w>
sh er
seren e</w>
separ ates</w>
sen s
sens ational</w>
se um</w>
scre en
sca les</w>
s ex
sex y</w>
s app
s ans</w>
ru by</w>
rol ling</w>
rhinest one</w>
rev amped</w>
reta in</w>
ret ur
relea ses</w>
relax ation</w>
re issu
re belli
rabb it</w>
r fi
rfi d</w>
qui et</w>
pul it
pulit zer</w>
pro ves</w>
pro ng</w>
pro mo
pro mi
pro c
preci sion</w>
possi bly</w>
plu s
pin stripe</w>
pillow top</w>
pil ling</w>
ph y
per sona
pat ina</w>
parti ally</w>
pa ss</w>
p unky</w>
p ounds</w>
p le
over coat</w>
outdoor sy</w>
ornam ent</w>
organ izing</w>
or nat
ornat ely</w>
or ing</w>
op ening</w>
on ic
non slip</w>
ni pping</w>
ne ppy</w>
n on</w>
n i</w>
multi hued</w>
mu seum</w>
moderni st</w>
mode l</w>
mo ld</w>
mo de</w>
min uti
mil ky</w>
mil d</w>
mean ing</w>
mainta in</w>
ma sh</w>
m ps</w>
loo sely</w>
lin ked</w>
li m
lea ds</w>
le scent</w>
lau rel</w>
lari at</w>
lad dered</w>
l y
l ur
key s</w>
john ny</w>
inter ru
inspir e</w>
influ en
influen ced</w>
in laid</w>
in ch</w>
imp ort
ic es</w>
i ly</w>
hem med</w>
hamm er</w>
ha d</w>
h ex
go thic</w>
glo b
glob al</w>
gir lish</w>
gi venchy</w>
ge y</w>
g rand</w>
g ins</w>
ful ler</w>
fru it</w>
folklo ric</w>
fluid ity</w>
flow s</w>
flirtati ous</w>
fla shing</w>
fisher man</w>
fin esse</w>
fel t</w>
fe w</w>
exuber ant</w>
ex pre
er gon
environ mentally</w>
encirc led</w>
ed ition</w>
ec t
ear n</w>
ea die</w>
drin k</w>
dri cal</w>
drea ming</w>
domin ates</w>
di vine</w>
di sp
di minuti
deli c
defin itely</w>
decor ates</w>
cylin drical</w>
cur ving</w>
cross es</w>
creat ed</w>
cozi er</w>
conversati on</w>
con si
complemen tary</w>
comb o</w>
co ins</w>
co ffee</w>
co co
clou ds</w>
climb s</w>
chev rons</w>
ch ore</w>
ch eer</w>
cat ches</w>
cap ris</w>
ca bled</w>
c table</w>
c it
c ated</w>
c a</w>
bu sted</w>
bro wn</w>
boy ish</w>
blun ted</w>
bel led</w>
bear ing</w>
beach side</w>
bar s</w>
band ing</w>
ba gs</w>
ba ggy</w>
b lur
b er</w>
authenti city</w>
architec ture</w>
an t
an a
alex ander</w>
al d</w>
ad i
absolu tely</w>
a vailable</w>
a ss
a bloom</w>
19 8
zz a
zza zz</w>
wor l
whi de</w>
wea ving</w>
vol ley</w>
vir tually</w>
ve il</w>
vac ations</w>
v p</w>
ur ingly</w>
unexp ect
unexpect edly</w>
ultra fine</w>
tw ork</w>
tw ea
tru m</w>
trop ics</w>
treat ed</w>
tra de
trade mark</w>
tor so</w>
to ile</w>
ting ling</w>
tin ted</w>
th berry</w>
t b</w>
t at
syn thetic</w>
symmetri cal</w>
swee ter</w>
supp ly</w>
subst ance</w>
stru t</w>
stra thberry</w>
sto wa
st e</w>
st ations</w>
ssi ve</w>
spec trum</w>
spar k</w>
sp are</w>
south west</w>
smar ten</w>
sli ps</w>
slee ping</w>
sla shes</w>
ski mmer</w>
skat e
si x</w>
shi bor
shibor i</w>
shadow s</w>
sha ggy</w>
sh ank</w>
se gmented</w>
scen ted</w>
satur ates</w>
sapp h
sapph ire</w>
saf ety</w>
sa i
s in
s ac
ry e</w>
roo ted</w>
rom an</w>
rol lable</w>
ro py</w>
ro p
rin e</w>
reinfor ces</w>
rebelli ous</w>
re semble</w>
re r</w>
radi se</w>
ra bly</w>
r s
qui se</w>
qu o
qu ilt</w>
pul led</w>
pu tting</w>
pro u
portu gal</w>
po sh</w>
po ron</w>
play ful
playful ness</w>
pla que</w>
pi zzazz</w>
phy si
pee k</w>
pear lescent</w>
pe ppy</w>
pa radise</w>
p re</w>
out sole</w>
out in</w>
ou ter</w>
open ings</w>
oo se</w>
off ered</w>
nonchal ant</w>
no ise</w>
ni ck
nick el</w>
n ature</w>
mo on
mil led</w>
mi zes</w>
mi mic</w>
men tal</w>
mee tings</w>
mar quise</w>
mar ket</w>
mar ine</w>
luxuri antly</w>
lou b
loub outin</w>
lo ad
limit ed</w>
ligh tened</w>
life style</w>
li ps</w>
li lies</w>
li er</w>
lea thers</w>
lac qu
la y</w>
la n</w>
l ve</w>
kaleidosco pic</w>
jam mies</w>
ja zz</w>
insul ating</w>
inj ec
impressi on
import ant</w>
imp ro
hu ara
huara che</w>
hal o</w>
h ung</w>
gu iling</w>
gre en
gra m</w>
gode t</w>
gn a</w>
gli mp
ge tic</w>
fu ssy</w>
frin gey</w>
fol low</w>
flu ted</w>
fil ter</w>
fa ir
f rye</w>
exper t</w>
ev il</w>
eu rop
epito me</w>
en ni
emer ges</w>
echo es</w>
ea d</w>
du sty</w>
drizz ly</w>
diminuti ve</w>
di ps</w>
dest ination</w>
de velo
dazz les</w>
day time</w>
dar ingly</w>
customi ze</w>
continu es</w>
comp on
commu te</w>
comb ined</w>
com position</w>
col lap
col der</w>
coco on</w>
co y
co ve
clo sures</w>
ci ga
char coal</w>
ch oose</w>
cer tain</w>
cascad es</w>
ca ps</w>
c ts</w>
bubb ly</w>
bu m</w>
bu ds</w>
brid ging</w>
brac elets</w>
bra zi
br e</w>
boun ty</w>
blou sed</w>
bed time</w>
bea d
be guiling</w>
be gins</w>
barbe cue</w>
authenti cally</w>
artis ans</w>
appro pri
appliqué d</w>
app le</w>
any time</w>
ant i</w>
anc ed</w>
ad v
ad o
a wash</w>
a lo
a ges</w>
a ged</w>
a ero
36 0</w>
19 60s</w>
1 9</w>
zigza gs</w>
y scale</w>
x y</w>
wood sy</w>
wat ching</w>
w ang</w>
vi ous</w>
ver dant</w>
v ity</w>
v an</w>
up on</w>
undeni ably</w>
un ti
unti l</w>
un lea
un k</w>
ugg pure</w>
u t</w>
u cy</w>
twea ve</w>
tt est</w>
tread lite</w>
trape zo
tr i</w>
toa st</w>
to es</w>
ting ed</w>
ther ings</w>
th ora</w>
te es</w>
tan n
tann ery</w>
tag onal</w>
ta ckle</w>
t t</w>
t ons</w>
t ell</w>
symbo li
swoo ping</w>
swee test</w>
sw ool</w>
sw e
sur faces</w>
su mer</w>
stun s</w>
stro lls</w>
stro lling</w>
strip ing</w>
strea ked</w>
sti an</w>
ste pping</w>
sta ined</w>
st ation</w>
ss ure</w>
spar ked</w>
sp end</w>
sp el
soiré es</w>
soiré e</w>
so ck
snu gg
snea kers</w>
sn i
sn ar
smar t
sla sh</w>
sk et
simul ated</w>
simpli fied</w>
shi fts</w>
sher bet</w>
she er
ser if</w>
sen su
sch oo
schoo l
sch ino</w>
saf e</w>
sa ys</w>
sa int</w>
s er</w>
s ent</w>
ru s</w>
ru g
rug by</w>
rs vp</w>
ro ng</w>
ro cking</w>
ro bust</w>
ri otic</w>
ri ck
rick ra
rickra ck</w>
respon sive</w>
rep ort</w>
ree k</w>
re worked</w>
re constructed</w>
radi ating</w>
ra z
pu d
protec ted</w>
proc esses</w>
pro vo
pro pri
propri et
propriet ary</w>
pro cess</w>
pre vent</w>
pre ssure</w>
pre sent</w>
pp o
por tra
ple thora</w>
pla ited</w>
pl an
pineapp les</w>
per enni
pee king</w>
pat riotic</w>
pat ched</w>
p j</w>
p et</w>
organi ze</w>
op ens</w>
om ic</w>
ny c</w>
ne st
n ational</w>
mu tton</w>
moun tain
monogra mming</w>
mo schino</w>
mo bility</w>
micro dot</w>
mi x
mi ssing</w>
mi mi
mean ing
meaning ful</w>
mat ches</w>
mar ching</w>
mag ic</w>
ma ker</w>
m son</w>
m ex
mex ic
lust ery</w>
lu c
luc ite</w>
low er</w>
lo y
lo r</w>
lo gna</w>
lit eral</w>
li me</w>
li et</w>
lett es</w>
legg ing</w>
le g
lay ing</w>
lau rent</w>
latti ced</w>
land scape</w>
lamb swool</w>
la sts</w>
kno wn</w>
kn u
ken zo</w>
k ha
ju liet</w>
jol t</w>
je gg
jegg ings</w>
j o</w>
it er
intertw ining</w>
incredi ble</w>
incorpor ates</w>
in forms</w>
in fin
in er</w>
imp art</w>
im bu
illustr ate</w>
ic ing</w>
ic als</w>
i gh
i ence</w>
ho ttest</w>
hin ges</w>
hee ls</w>
h a</w>
groo ve</w>
graph y</w>
gra ced</w>
gen da</w>
ga therings</w>
g reek</w>
fresh en</w>
fr ance</w>
folk sy</w>
flo ppy</w>
fli ppy</w>
flamin gos</w>
fish tail</w>
fir m</w>
fair y</w>
fac ed</w>
fa int</w>
extre mely</w>
ext en
exper ience</w>
evo lve</w>
evo kes</w>
europ ean</w>
ergon omic</w>
ener getic</w>
enchan ts</w>
emer ald</w>
elimin ating</w>
elev ating</w>
el bows</w>
e tweave</w>
dy e
draw cords</w>
do tting</w>
do med</w>
do cu
dist ance</w>
der ing</w>
de le
dain ti
da shing</w>
da ble</w>
cu lo
cri mson</w>
cra ck
cove table</w>
cool ness</w>
coo lly</w>
conver ts</w>
contou ring</w>
con sumer</w>
compli cated</w>
com ic</w>
col li
clu b</w>
ciga rette</w>
chri stian</w>
chlo rine</w>
che wed</w>
chan deli
chaf ing</w>
cer ti
car pet</w>
c ement</w>
c ci
bur ch</w>
bru sh</w>
broad ens</w>
brea king</w>
bow ling</w>
boun cy</w>
bor dered</w>
boo ts</w>
bol ts</w>
bo p</w>
bo logna</w>
bin ge</w>
bi color</w>
bea r</w>
be gin</w>
be e</w>
bask etweave</w>
bar b
barb our</w>
ba ked</w>
b lustery</w>
b ati
bati k</w>
at o</w>
ar c</w>
an ta
am a</w>
al ty</w>
afterno on</w>
adap tive</w>
adap t</w>
abstra cted</w>
absorb ent</w>
a wa
a genda</w>
19 7
1 30s</w>
z ero
z ed
zed plus
zedplus 2</w>
yo kes</w>
y ard</w>
wor sted</w>
wool -blend</w>
whimsi cally</w>
wh o</w>
wh ites</w>
wel ted</w>
wel ded</w>
warm ly</w>
wal k
wa y
w ned</w>
w inter
w g</w>
w and
vi o
ve iled</w>
v it
urb ane</w>
unlea sh</w>
un paralle
unparalle led</w>
un ity</w>
un fussy</w>
un complicated</w>
ultra smooth</w>
ultra feminine</w>
ty p
typ ical</w>
tur quo
turquo ise</w>
tre cci
trecci ato</w>
trav els</w>
tra vel
tough en</w>
tor n</w>
to gg
tit le</w>
tim es</w>
ti ghtly</w>
them e</w>
th ically</w>
th ed</w>
ter s</w>
taper s</w>
ta l
t uring</w>
sy l
swoo shes</w>
swin ging</w>
swim wear</w>
swee p</w>
sw ings</w>
sur round</w>
supp lies</w>
super chunky</w>
sun washed</w>
su gg
stra pping</w>
stowa way</w>
star let</w>
star k</w>
stand outs</w>
stand alone</w>
stack able</w>
sso ni</w>
squa res</w>
squ i
spl atters</w>
spi ky</w>
sp ray</w>
sp len
sp ens
spens able</w>
sof test</w>
sock like</w>
snar ling</w>
sn ow
sn oo
slu bby</w>
sing ly</w>
sign al</w>
shoo ting</w>
shir ts</w>
sheer ness</w>
sele ction</w>
sec tion</w>
scro lls</w>
school girl</w>
sand y</w>
sai lor</w>
sa ucy</w>
s ways</w>
s itting</w>
s cra
roy al</w>
ro bert</w>
riv et</w>
ri d
rep elling</w>
reissu e</w>
regul ating</w>
regi mented</w>
re sembles</w>
re no
reno wned</w>
ra gged</w>
qu ite</w>
pu ter</w>
provo c
protec ts</w>
produ ction</w>
pro per
preci sely</w>
power path</w>
polari zedplus2</w>
po ppy</w>
po pp
po m</w>
po ds</w>
pineapp le</w>
physi que</w>
pho to
persona lized</w>
pea coat</w>
past els</w>
parti al</w>
pa ying</w>
pa il
out seams</w>
organ ically</w>
oc tagonal</w>
o live</w>
ny d
nyd j</w>
numer als</w>
ni cks</w>
nee ded</w>
ne tic</w>
ne jo</w>
navig ator</w>
n ett
n el
moun tain</w>
mo ons</w>
mo ir
moir é</w>
mimi cs</w>
mid dle</w>
mi ssoni</w>
mari a</w>
mar kers</w>
mar c</w>
mag netic</w>
ma i
lu cky</w>
loo py</w>
log ical</w>
lo ca
li p
li l
length en</w>
lea d</w>
lacqu ered</w>
la wn</w>
la dy</w>
l wg</w>
knu ckle</w>
jo y</w>
jew els</w>
ja zzy</w>
ja co
jaco bs</w>
iter ation</w>
it ing</w>
it ems</w>
ir rever
inv itation</w>
inter nal</w>
insul ates</w>
insul ate</w>
indi spensable</w>
in trecciato</w>
in gen
ingen ious</w>
impre sses</w>
im possibly</w>
icon s</w>
i ze</w>
hy per
hy d
hyd ro</w>
horse shoe</w>
hor ses</w>
hin ts</w>
hea ded</w>
h itting</w>
h il
h at
gu ed</w>
great est</w>
gre ens</w>
grand os</w>
gra de</w>
goo ds</w>
glo ri
gli ding</w>
gli des</w>
ga ther</w>
g it
g al
foun d</w>
fore cast</w>
for ces</w>
foo ted</w>
flat tens</w>
fig ures</w>
fi re
feat ured</w>
fast ens</w>
fal ling</w>
fa ille</w>
f ic
extre me</w>
exten der</w>
explo ring</w>
explo ded</w>
evo king</w>
et ching</w>
ess ed</w>
ens uring</w>
enjo ying</w>
end uring</w>
en try</w>
en cou
embolden s</w>
embo dy</w>
ei ther</w>
eff use</w>
e thically</w>
e specially</w>
dye ing</w>
dri ven</w>
dri pping</w>
dri p</w>
distin ctively</w>
di g</w>
di a
den sely</w>
delic ious</w>
dele ctable</w>
dapp le</w>
da shed</w>
da r</w>
da gger</w>
da d</w>
custo mer</w>
cul ation</w>
crosshat ch</w>
cro ssed</w>
crack led</w>
cra ze</w>
cou ld</w>
cor ner</w>
cor nejo</w>
coordin ated</w>
compri ses</w>
commu tes</w>
com puter</w>
com fi
collap sible</w>
colla ge</w>
clea r
classi cs</w>
clas ses</w>
cit rus</w>
cir culation</w>
cho ices</w>
cha sing</w>
certi fied</w>
center ing</w>
bun dle</w>
bro gued</w>
bree zi
brazi lian</w>
bra ve</w>
bow ed</w>
bo y</w>
bead work</w>
bat wing</w>
back less</w>
b ee
b ears</w>
at tra
appropri ate</w>
app y</w>
ann a</w>
ana gram</w>
altern ating</w>
all uringly</w>
afterno ons</w>
aero dynamic</w>
ac y</w>
abun dant</w>
absolu te</w>
a z
a stro
20 20</w>
0 0s</w>
zero grand</w>
z y
z en</w>
y x</w>
y me
yme ter</w>
wr eath</w>
work week</w>
wor d</w>
wo bb
wobb le
wobble board</w>
win ding</w>
who se</w>
weather proofing</w>
way fa
wayfa rer</w>
w rinkled</w>
w all</w>
vio let</w>
vin yl</w>
vin gly</w>
ver ve</w>
ver ing</w>
vari ations</w>
v ul
vul can
vulcan ized</w>
v ita
v in</w>
v edge</w>
v ant</w>
v age</w>
ur posed</w>
univers al</w>
under foot</w>
unbeliev able</w>
tu m</w>
tu fts</w>
tu ck
tuck able</w>
tro mp
tromp e</w>
tren ding</w>
tran sport</w>
top coat</w>
to ss</w>
to pa
topa z</w>
ti les</w>
throw ing</w>
threa ded</w>
though tful</w>
thi ckly</w>
ther ma</w>
thear ted</w>
tern al</w>
tat ar
tatar s
tatars al</w>
tar ge
ta ch
tach ymeter</w>
t our</w>
t ment</w>
t foli
tfoli o</w>
syl vie</w>
swe di
swedi sh</w>
sw at
sustain ability</w>
surpri singly</w>
surpri sing</w>
super thin</w>
super b</w>
sun day</w>
summer time</w>
sub t
su le</w>
su ita
stru ck</w>
stri ch</w>
stri ated</w>
strea m</w>
stic al</w>
stee ly</w>
star burst</w>
stand ing</w>
stand b
standb ys</w>
sta sh</w>
sta in</w>
sta gg
stagg ered</w>
st ren
stren g
ss am
ssam er</w>
spad es</w>
sp ills</w>
sp her
sp er
so c
soc ial</w>
snugg ly</w>
slo gan</w>
slipp ers</w>
slee p
sleep wear</w>
sizz ling</w>
shor n</w>
shi fting</w>
sett le</w>
ser pen
sel vedge</w>
see ms</w>
see m</w>
scrun ch</w>
scrip tion</w>
screen printed</w>
scre ens</w>
sal t</w>
sac rif
sacrif icing</w>
sa shes</w>
sa rong</w>
s man</w>
s chy</w>
rubb er
ru st</w>
rous ly</w>
rou ght</w>
ri st</w>
ri ad</w>
rho m
rhom bu
rhombu s</w>
resi li
resili ent</w>
repeat ing</w>
rep urposed</w>
rep el</w>
regul ation</w>
refer enc
rec ian</w>
rea ches</w>
re stri
re quir
requir ed</w>
re pu
repu tation</w>
re p</w>
re main</w>
re charge</w>
re bound</w>
ra whide</w>
ra il
rail road</w>
qu in</w>
puff s</w>
pu mps</w>
provoc ative</w>
prou dly</w>
pro wl</w>
pro per</w>
pre scription</w>
por tfolio</w>
pon y</w>
po pping</w>
po ms</w>
po e
pin s</w>
pi cot</w>
ph ot
phot or
photor ea
photorea listic</w>
perfec ted</w>
per s</w>
per k</w>
pebb ly</w>
paralle l</w>
pan ty</w>
pail lettes</w>
pack ed</w>
p ine</w>
p ed
out side</w>
out fitting</w>
or d
ord an</w>
on ary</w>
o strich</w>
o e
oe il</w>
nu mber</w>
noti ce</w>
no ds</w>
nic s</w>
ni sh</w>
neck laces</w>
nam es
names a
namesa ke</w>
na il</w>
my riad</w>
multi ply</w>
mo vie</w>
mirro r</w>
micro wobbleboard</w>
micro suede</w>
micro check</w>
mi ly</w>
med ley</w>
meas ure</w>
me tho
me tatarsal</w>
mag ni
mac a
ma ra
ma pop</w>
m ight</w>
m ea
loca le</w>
lo vingly</w>
lo cks</w>
ligh thearted</w>
lig ree</w>
la mé</w>
la bel
l thy</w>
l th</w>
l i</w>
kit schy</w>
kha k
kaleidosco pe</w>
k o
k ings</w>
k ets</w>
k end
k ate</w>
jap an</w>
j ordan</w>
j el
it h</w>
inv ites</w>
interru p
inter sec
inter pre
inter lock</w>
intenti onally</w>
inst in
in i</w>
in door</w>
in cle
incle ment</w>
if ic</w>
i x</w>
i mag
hu ge</w>
hor se</w>
hil fig
hilfig er</w>
high way</w>
hi ding</w>
hex agonal</w>
her d</w>
hen ce</w>
hel lo</w>
happ ily</w>
hand woven</w>
han gs</w>
ha ves</w>
gy le</w>
gri dded</w>
gra d
go ssamer</w>
glo ss</w>
glit zy</w>
gi raff
gh o
ge st
gar de</w>
g recian</w>
g ers</w>
fur ry</w>
fresh ness</w>
free dom</w>
foot print</w>
fol lows</w>
fluid ly</w>
fla ps</w>
fish net</w>
fin al</w>
fier cen
fiercen ess</w>
fi ligree</w>
festi v
feroc iously</w>
feroc ious</w>
fer ence</w>
fa m
f tan</w>
f ed
fed ora</w>
f anta
explo re</w>
explo des</w>
explo de</w>
exp ands</w>
encirc les</w>
enchan tment</w>
en ca
emin ently</w>
em ents</w>
elimin ate</w>
el li
eas ing</w>
dry ness</w>
dra g
dol lo
di git
di c</w>
devi ces</w>
deligh ts</w>
deli vering</w>
decor ating</w>
dainti est</w>
d ura</w>
d ings</w>
cyc le</w>
cul t</w>
cu es</w>
cru shed</w>
cro ps</w>
crea m</w>
coy ly</w>
coup le</w>
counter balance</w>
cotton -blend</w>
conver ge</w>
continu e</w>
consi der</w>
connec ted</w>
confiden tly</w>
con ference</w>
compon ent</w>
comp ati
com promi
com mit
colli de</w>
co le</w>
clo sed</w>
clear ly</w>
clea vage</w>
ck ey</w>
chro mapop</w>
cho col
champ ag
champag ne</w>
chaf e</w>
cer am
ceram ic</w>
cat tle</w>
care fully</w>
car gos</w>
cap sule</w>
ca mel</w>
ca ftan</w>
ca bling</w>
c el
butt er</w>
bro n
bri mmed</w>
brea ks</w>
bouqu et</w>
bor n</w>
bol ero</w>
blosso ming</w>
blan kets</w>
bla ke</w>
bla des</w>
bla cks</w>
bed room</w>
bar rel</w>
bar re</w>
bar ber
band ana</w>
b ones</w>
authenti cate</w>
au to
at ali
ar my</w>
ar gyle</w>
ar ctic</w>
appro ved</w>
an u
an to
alo ha</w>
al ls</w>
adv anced</w>
ado rable</w>
additi onal</w>
accesso ries</w>
abun dance</w>
a vant</w>
5 0</w>
2 4</w>
zo dia
zodia c</w>
z one</w>
z an
y in</w>
y ang</w>
x ta
wri st
win ning</w>
wil li
wi res</w>
wi ch</w>
whit tle</w>
whisp ery</w>
wh ee
wed dings</w>
wea rs</w>
wea lth</w>
water me
wat ers</w>
w rang
wrang ler</w>
w ir
wir ed</w>
w illow
willow y</w>
vit tori
vittori o</w>
verti cally</w>
ver onic
veronic a</w>
ver age</w>
va g
vag ant</w>
v il
v al
up f</w>
up coming</w>
uni forms</w>
under pin
unaba shed</w>
un bea
unbea table</w>
ultra plush</w>
ty po
typo graphy</w>
twin kly</w>
tu be</w>
tri fold</w>
tri cot</w>
tri co
trico tine</w>
travel ing</w>
traditi onally</w>
tou c
touc ans</w>
to w</w>
tim ber
ti ful</w>
ti cs</w>
ti cking</w>
tho m</w>
thin king</w>
th insulate</w>
ter rain</w>
ten ing</w>
techn i</w>
targe ted</w>
ta p</w>
t ying</w>
t een</w>
t ears</w>
symbo ls</w>
sur p
surp rise</w>
super model</w>
sun ni
sunni er</w>
suita ble</w>
su ga
suga r</w>
stro m</w>
streng th</w>
stre ss</w>
stra lian</w>
sti pp
stel l
star ted</w>
sta ins</w>
st rings</w>
st ati
stati oned</w>
ss a</w>
spri t</w>
spot lights</w>
spor tier</w>
splot ches</w>
spir a</w>
spi kes</w>
sp unky</w>
sp an</w>
sour ces</w>
sou th</w>
some one</w>
sof ia</w>
so l
snow fla
sni pped</w>
sn appy</w>
smi le</w>
smart care</w>
slo ping</w>
sli ver</w>
ski es</w>
sk y
sk ates</w>
silhouett ed</w>
sign atures</w>
shrou ds</w>
showsto pper</w>
show er</w>
shou ld</w>
sho es</w>
shel f</w>
shar pen
shad ing</w>
shad ed</w>
sha y</w>
serpen tine</w>
separ ately</w>
separ ate</w>
see ker</w>
sculp tured</w>
sco tt</w>
sch em
schem e</w>
sc ribb
sc i</w>
satur day</w>
sa shay</w>
sa il
s su
s is</w>
s ette</w>
s cuffed</w>
s cuff</w>
rubber ized</w>
rough ed</w>
ro sette</w>
ripp le</w>
rid ged</w>
ri sing</w>
ri mmed</w>
ri ck</w>
retur n</w>
ret on</w>
restri cted</w>
repti lian</w>
repeat ed</w>
rep els</w>
ren cy</w>
redu ced</w>
rea son</w>
re vamp</w>
re v</w>
re spira</w>
re set</w>
re presen
re m</w>
re interpre
re ds</w>
re designed</w>
raz or</w>
r it
r ati
qu een</w>
pud dle</w>
propor tion</w>
produ ce</w>
pro j
pre pared</w>
ppo la</w>
pp ers</w>
post par
postpar tum</w>
possi ble</w>
positi vely</w>
portra it</w>
popp ies</w>
po lar</w>
po di
podi at
podiat rist</w>
plun ged</w>
plea se</w>
pla n</w>
pin a
pina fore</w>
pic nics</w>
pi x
ph in</w>
perfec ting</w>
pen ch
pench ant</w>
pear lized</w>
pea ce
pan ther</w>
pan ama</w>
pac ific</w>
pa y</w>
p ill</w>
over laid</w>
over all</w>
out ings</w>
on yx</w>
on ia</w>
o il</w>
o es</w>
not en</w>
not ches</w>
nor d
nord strom</w>
non marking</w>
ni ps</w>
nett ed</w>
ne w
ne p</w>
n ine</w>
n ets</w>
n ero</w>
my stical</w>
musc les</w>
multi strand</w>
mp ing</w>
min ute</w>
mi das</w>
mer ry</w>
mel ton</w>
mea dow</w>
me li
meli ssa</w>
mb shell</w>
mau i
mara thon</w>
mai son</w>
maca bre</w>
ma ster
ma kings</w>
m ad
loy alty</w>
lou d</w>
lo ve
lo se</w>
lo graphic</w>
lo be</w>
lip stick</w>
lin ings</w>
lim it</w>
li on</w>
lett ered</w>
len ding</w>
lea ping</w>
le in</w>
le en</w>
lar m</w>
lad ders</w>
la cro
lacro ix</w>
k lein</w>
k ably</w>
jump man</w>
ju xta
jel ly</w>
ja gu
jagu ar</w>
j i</w>
ist y</w>
ir d</w>
introdu ced</w>
inter sper
inter chang
interchang eable</w>
inst ead</w>
inspir ing</w>
indul gently</w>
indu stry</w>
inclu sion</w>
inclu de</w>
in tly</w>
in ette</w>
in ese</w>
in ations</w>
imp ar
impar ts</w>
ima ges</w>
il lo
i g
i est</w>
i er</w>
i den
hugg ies</w>
hol ding</w>
ho st</w>
ho lographic</w>
hi pp
her o</w>
heat seeker</w>
har mon
han g</w>
hal l
ha m</w>
gun dy</w>
guar an
gu illo
gromme ted</w>
graph ite</w>
gra ys</w>
gra y</w>
gra ham</w>
glori ous</w>
glo be</w>
glist en</w>
glin t</w>
giraff e</w>
gir ls</w>
gi fting</w>
gi a</w>
gho stly</w>
gest ure</w>
gala xy</w>
g rin
g ree</w>
g lowing</w>
g at
g anc
ganc ini</w>
fru ity</w>
friend ship</w>
fri ction</w>
form ation</w>
fore st</w>
for get</w>
fol lowing</w>
flounc es</w>
fl its</w>
fir mly</w>
fin ery</w>
fin ds</w>
fin anc
financ ial</w>
fi shing</w>
fe isty</w>
fa r</w>
fa med</w>
fa intly</w>
fa b</w>
f ying</w>
f o</w>
extra vagant</w>
extra light</w>
exagger ates</w>
ex ternal</w>
ett es</w>
er ous</w>
er ina</w>
enti rely</w>
encou ra
encirc le</w>
enca sed</w>
electri fies</w>
ei leen</w>
ea s</w>
e sprit</w>
e cho</w>
dry vent</w>
dry tec</w>
docu ment</w>
digit al</w>
differ ence</w>
di ag
diag onally</w>
develo p</w>
decad ently</w>
de l
de bo
dar ker</w>
dang erous</w>
d ur
d le
d ates</w>
cud dle</w>
cu test</w>
cu sh</w>
cra zy</w>
cra fty</w>
cow boy</w>
cool max</w>
conc eals</w>
con stell
con st
con ical</w>
con cer
compati ble</w>
comm unity</w>
com pass</w>
co ppola</w>
co pper</w>
clu b
climb ing</w>
cli ps</w>
clar ks</w>
chocol ate</w>
chlo é</w>
character ize</w>
chandeli er</w>
cha in
cen ce</w>
can ad
canad a</w>
cal vin</w>
ca len
c ting</w>
c lin
bur gundy</w>
bubb les</w>
bru shes</w>
brow ns</w>
bron ze</w>
brief case</w>
brid le</w>
bri sk</w>
bri ef</w>
breath taking</w>
bo mbshell</w>
blu r</w>
blea chy</w>
blaz ing</w>
bisec ts</w>
bee fy</w>
bat tle</w>
ball erina</w>
bal inese</w>
bac ks</w>
ba si
ba ffle</w>
ba d</w>
ba be</w>
b reton</w>
b ic
b end</w>
b an
b ad
au stralian</w>
attra ct</w>
atali a</w>
ar ches</w>
aqu atalia</w>
anto inette</w>
ann ed</w>
anim ates</w>
anim ate</w>
anch oring</w>
altern ate</w>
al wear</w>
al pine</w>
al lowing</w>
aes the
adju sts</w>
accordi oned</w>
accor nero</w>
absorb s</w>
a w
a verage</w>
a larm</w>
50 1</w>
50 +</w>
2 0s</w>
1 2</w>
0 g</w>
zz i</w>
zy me</w>
zigz agg
zigzagg ing</w>
y wood</w>
y a</w>
worl dly</w>
wor th</w>
wor ry</w>
wo man</w>
wit ching</w>
window s</w>
willi a
willia ms</w>
wil der</w>
wi s
wi den
wi de
whitt les</w>
whee ls</w>
weigh ty</w>
waterme lon</w>
water fall</w>
water bur
waterbur y</w>
war s</w>
wand er
wander lu
wanderlu st</w>
wal l
wai ian</w>
wa ving</w>
wa shing</w>
w u</w>
w u
wu bby</w>
w rought</w>
w ou
wou ld</w>
w ls</w>
vita le</w>
vil la
villa ge</w>
vi se
vise tos</w>
ver se</w>
ven ly</w>
ven ir</w>
ven der</w>
ve wear</w>
va ged</w>
v l
vl t
up lifting</w>
up lift</w>
under wear</w>
under lay</w>
under cover</w>
unaba sh
unabash edly</w>
un wind</w>
un restricted</w>
un a</w>
ultra lightweight</w>
u s
u ght</w>
twin kles</w>
twi sts</w>
tur tle</w>
tu lips</w>
tu bu
tubu lar</w>
tt ered</w>
tro tting</w>
tri ppy</w>
tri os</w>
trapezo id
trapezoid al</w>
tra q</w>
tra de</w>
tow el</w>
tough ened</w>
toge thers</w>
ti lly</w>
ti fies</w>
ti cket</w>
them sel
themsel ves</w>
the w</w>
th ri
th ird</w>
ter ra</w>
ter n</w>
ter ing</w>
tea ms</w>
tea med</w>
tan e
tane ously</w>
tan a</w>
tal k</w>
ta ways</w>
ta ste</w>
ta med</w>
ta ken</w>
ta cked</w>
ta bility</w>
t é</w>
t less</w>
t ease</w>
swoo p</w>
swi shes</w>
susp end</w>
sur plus</w>
sur face</w>
super sleek</w>
super bly</w>
subt lest</w>
su its</w>
stu ff</w>
struc tural</w>
stri des</w>
strea ks</w>
stra pped</w>
stor ing</w>
sto ck
stit ch
star ting</w>
sta sculpt</w>
sta bi
ssi ble</w>
squi she
squishe e</w>
spri ghtly</w>
spel ls</w>
spec tive</w>
spark led</w>
spac ed</w>
sp s</w>
sp rinkle</w>
sp lat
splat ter</w>
sp in
sp ell</w>
sp atter</w>
sp an
sp a</w>
sou venir</w>
so ld</w>
sna kes</w>
sna ke
snake print</w>
sli ther</w>
sli pping</w>
sli mly</w>
sli ce</w>
slee kly</w>
skate bo
skatebo ard
skateboard ing</w>
sk ills</w>
sk id</w>
sizz le</w>
side walk</w>
si ren</w>
si ded</w>
shrou ding</w>
shor tened</w>
shor e</w>
shoo t</w>
sho wn</w>
shi fted</w>
sharpen s</w>
shar p
shap er</w>
sh up</w>
sh rugged</w>
sh rink
shrink age</w>
sh i</w>
ser rated</w>
ser ies</w>
sensu ous</w>
sem bling</w>
see king</w>
sedu ctively</w>
sec uring</w>
scrun chy</w>
scrun chi
scre en</w>
scen es</w>
scar let</w>
sal ute</w>
sail boat
sailboat s</w>
sad dle
saddle bag</w>
sa un
sa lig
salig ned</w>
s sport</w>
s ev
s ear
s an
rugg ed
rugged ness</w>
ru sy</w>
ru ff</w>
roun ding</w>
rou te</w>
rock star</w>
ro aring</w>
rif le</w>
rich ness</w>
ri ms</w>
retur ns</w>
resul ts</w>
reinfor cement</w>
regul ate</w>
ree tly</w>
redu ction</w>
rea m</w>
rea ching</w>
re volu
re stra
re sembling</w>
re scent</w>
re ne
re ma
re interpretation</w>
re ins</w>
re boot</w>
rand om
random ly</w>
radi ates</w>
ra vi
ra s</w>
ra mé</w>
ra g</w>
qu in
quin n</w>
qu esti
qu er</w>
puck ering</w>
pu shes</w>
proper ties</w>
promo te</w>
profi les</w>
presen ce</w>
pre pster</w>
pra da</w>
pow ers</w>
pow der</w>
po sing</w>
plun ges</w>
plen tiful</w>
play suit</w>
plan et</w>
pix el
pixel ated</w>
pintu cking</w>
pi pe</w>
pi g
perenni ally</w>
per spective</w>
per pen
perpen di
per i
pend le
pendle ton</w>
ped i</w>
pea ks</w>
pe te</w>
pe ers</w>
pat ag
patag onia</w>
par tow</w>
par ticu
pan ky</w>
paisle ys</w>
pain ting</w>
pa ssport</w>
pa ssion</w>
p les</w>
ow ens</w>
over heat
over dyed</w>
over alls</w>
oun d</w>
ornam ents</w>
or der</w>
oo m</w>
onic o</w>
ob i</w>
o v
o rescent</w>
o on</w>
o ce
o blo
oblo ng</w>
numer al</w>
nor dic</w>
nonchal antly</w>
nonchal ance</w>
ni cked</w>
new ly</w>
nest led</w>
nel lie</w>
necess ary</w>
ne gi
negi e</w>
nauti cally</w>
na mi
n ar
mov ements</w>
moti v
mon tana</w>
mon t</w>
mol ten</w>
mode led</w>
mo stly</w>
mo dest
modest ly</w>
mix ture</w>
mini mizes</w>
min t</w>
min eral</w>
mil ano</w>
micro print</w>
micro fleece</w>
mi saligned</w>
mexic an</w>
metho ds</w>
meas ured</w>
mat thew</w>
mari e</w>
mar ve
mar mont</w>
man ages</w>
magni fic
mag ically</w>
mad ras</w>
mac ramé</w>
ma ster</w>
ma shup</w>
ma scu
ma ma</w>
ma je
maje stic</w>
m yst
m bi
m ate</w>
luxuri ant</w>
lu gs</w>
lu gg
lugg age</w>
load s</w>
load ed</w>
lo ves</w>
lo vers</w>
lo sing</w>
lo fts</w>
lo ed</w>
ll ywood</w>
li ly</w>
li est</w>
length ens</w>
lei sure</w>
le m
lavi shly</w>
lap is</w>
lan tern</w>
lady bu
la vender</w>
la des</w>
kn its</w>
kn ight</w>
kin e
kine tic</w>
ki sh</w>
ki cking</w>
kend ra</w>
ken stock</w>
ke pt</w>
iti ve</w>
it ch</w>
ir regular</w>
inv est
invest ment</w>
introdu ce</w>
intertw ined</w>
intersper sed</w>
interlo cked</w>
inter play</w>
instin cts</w>
injec ts</w>
injec tion</w>
ing ed</w>
infu se</w>
infin ity</w>
indul g
indulg ent</w>
inclu ded</w>
in visible</w>
in stasculpt</w>
in fo</w>
impro ved</w>
imbu e</w>
imag ery</w>
il lie</w>
igh t
id ent</w>
ic ed</w>
i zes</w>
i ron</w>
i mage</w>
i ds</w>
hy ped</w>
hy dro
hor n</w>
hon oring</w>
holi days</w>
ho w
ho llywood</w>
hipp ie</w>
high est</w>
hi p
hem p</w>
heat gear</w>
hea venly</w>
hat tie</w>
har dy</w>
han ky</w>
hall mark</w>
ha waiian</w>
ha loed</w>
h inged</w>
guillo che</w>
guar ds</w>
gu y</w>
gu ard</w>
groo ves</w>
gri ppers</w>
green wich</w>
gre ys</w>
gre es</w>
grad é</w>
gra yscale</w>
gr an
goo se</w>
go at</w>
gn ment</w>
glit z</w>
glin ts</w>
glimp ses</w>
glimp se</w>
glimm er</w>
gla mmed</w>
gh illie</w>
gener ated</w>
ge taways</w>
gat ch
gatch i</w>
g am
fu sing</w>
fresh est</w>
fra y</w>
for ce</w>
foot ball</w>
focu ses</w>
fo ggy</w>
flu orescent</w>
flat tened</w>
flamin go</w>
fla sh
fl ying</w>
fl an
fin est</w>
fi res</w>
fi el
fiel ds</w>
ff led</w>
ff el</w>
ff ed</w>
festiv ities</w>
fast ening</w>
fanta stic</w>
fa ves</w>
fa una</w>
f ight</w>
f ear
f arm
f ar
f and
fand om</w>
eye -
ey ed</w>
extra ordinary</w>
expre ssion</w>
ex ist</w>
ever lasting</w>
est s</w>
enti cing</w>
engin eer</w>
energi zed</w>
ener g</w>
encirc ling</w>
en zyme</w>
en sembles</w>
en rich</w>
elong ates</w>
elec tro
ele ph
el li</w>
ec tion</w>
ear ns</w>
e wear</w>
dy nami
dur at
durat read</w>
du tch</w>
du rably</w>
du ffel</w>
dre sses</w>
down time</w>
dol phin</w>
disp lays</w>
disp laying</w>
disc reetly</w>
dis gui
di ve</w>
di stra
depen ding</w>
dem ands</w>
defin ite</w>
def ying</w>
decad es</w>
dec la
debo ssed</w>
de gree</w>
d ness</w>
d like</w>
d ani
d angles</w>
cur ling</w>
cup ro</w>
culo tte</w>
cul tured</w>
cti ons</w>
cru sh</w>
crow ned</w>
cra dle</w>
cotton y</w>
cor dura</w>
coordin ate</w>
conveni ently</w>
const ant</w>
con ut</w>
con ta
con quer</w>
compre ssible</w>
commit ment</w>
comfi est</w>
colo mbi
colla b</w>
coa ster</w>
co lades</w>
co conut</w>
club house</w>
clo ser</w>
cli pped</w>
classi cal</w>
cla ude</w>
cla sh</w>
ck out</w>
ck ers</w>
chri st
chin ese</w>
chil ling</w>
chil lier</w>
char mingly</w>
chang es</w>
chan tilly</w>
ch or
ch ic
celebr ation</w>
ce work</w>
car to
car negie</w>
captiv ates</w>
cap turing</w>
can teen</w>
can onico</w>
cali co</w>
calen dar</w>
c rumpled</w>
c iti
bur nish</w>
bun dles</w>
bun ch</w>
bubb led</w>
bu st
bu gatchi</w>
brow ne</w>
brow line</w>
brilli antly</w>
brigh tening</w>
bri de</w>
brea the</w>
brea k
botan icals</w>
bor rowing</w>
bor ing</w>
boo ties</w>
boo sting</w>
bon fires</w>
bon fire</w>
bol der</w>
bo gs</w>
bo bble</w>
bo bb
bobb les</w>
blur red</w>
blu e
blea ch</w>
bir kenstock</w>
bi o
ben e
beli es</w>
bea ches</w>
be gui
be ds</w>
barber is</w>
bar rette</w>
back yard</w>
ba y</w>
ba res</w>
b re
b its</w>
b em
b angle</w>
auto matic</w>
au ster
atter ing</w>
at s</w>
at m</w>
ass ets</w>
archi ve</w>
ar twork</w>
ar s</w>
ar re
aqu atic</w>
anti fatigue</w>
ang es</w>
an sw
an o
an gel</w>
ali gnment</w>
ali g
air flow</w>
af ri
aesthe tics</w>
adi das</w>
acti vewear</w>
accom pan
accessori zed</w>
ac ts</w>
ac colades</w>
a sk
a live</w>
a gleam</w>
1 1</w>
1 0
- lined</w>
zz o</w>
zan ero
zanero be</w>
z zed</w>
z ones</w>
z er
z a
you th
yo king</w>
y u
y the</w>
y es</w>
y e</w>
y a
x l</w>
x ing</w>
x am</w>
wrist let</w>
wri e</w>
wool len</w>
wood cut</w>
wo l
wol f</w>
wis dom</w>
winter y</w>
wide ly</w>
wi cker</w>
whit e
whip stitch</w>
wh en
when ever</w>
wea thering</w>
wal ls</w>
wa x</w>
wa ved</w>
wa ste</w>
wa ffled</w>
w rea
wrea thed</w>
w ine</w>
w een</w>
volu mi
vlt n</w>
vin ey
viney ard</w>
vie ws</w>
vi si
versi ons</w>
ventil ating</w>
ve pipe</w>
v logo</w>
v b</w>
utt er</w>
ur o</w>
up side</w>
underpin ning</w>
under sco
under bust</w>
under band</w>
un rolled</w>
un it</w>
un fur
un do</w>
un adorned</w>
ultra sleek</w>
u vb</w>
u va</w>
u si
u k</w>
twin set</w>
tw ine</w>
tu sc
tu al</w>
tt es</w>
tru th</w>
tru est</w>
trime ster</w>
tri mly</w>
tri ed</w>
tri angles</w>
tre ss</w>
trapezo id</w>
trans formed</w>
tran sl
tra verse</w>
tra punto</w>
too led</w>
togg les</w>
togg led</w>
to ire</w>
to ed</w>
time worn</w>
ti vely</w>
ti ssu
tissu e</w>
ti sci</w>
ti ons</w>
ti onary</w>
ti gers</w>
ti ff
tiff any</w>
threa der</w>
thin k</w>
thi cker</w>
ther n</w>
ther mo
ten sion</w>
tem pu
tempu r</w>
tear drops</w>
te ed</w>
tan ger
tanger ine</w>
tali sman</w>
tailo r</w>
ta ped</w>
ta i</w>
t ype</w>
t u</w>
t rou
t onally</w>
t ingly</w>
swi shing</w>
swat h</w>
swa thed</w>
swa p</w>
sw oon</w>
sw ank</w>
susp ending</w>
susp en
sur rounded</w>
supre en</w>
super short</w>
super hero</w>
super cute</w>
sun baked</w>
summer weight</w>
suit es</w>
sugg ests</w>
sub lime</w>
sub dials</w>
su re
su perf
superf lu
superflu ous</w>
su cc
stun ner</w>
stun n
stunn ingly</w>
stu dy</w>
stru tting</w>
stru ctions</w>
stro kes</w>
strea ms</w>
strea k</w>
stra ight
straight forward</w>
stor my</w>
stock ings</w>
sto vepipe</w>
sto pping</w>
stitch work</w>
stic ally</w>
stee ped</w>
st sel
stsel ler</w>
st le</w>
st ful</w>
st are</w>
st adi
stadi um</w>
ssi on
ssi er</w>
sprin kling</w>
splot chy</w>
splen di
spin el</w>
spher ical</w>
sp rinkles</w>
sp icy</w>
sp berry</w>
sp angled</w>
some where</w>
some times</w>
soli ds</w>
soli di
sol ita
sof ty</w>
so o
snowfla kes</w>
sna pped</w>
smo l
smol der</w>
smi les</w>
sm ythe</w>
slo t</w>
sli thering</w>
sli pped</w>
sli ders</w>
sli der</w>
slee ker</w>
sky ward</w>
ski p</w>
ski er</w>
sk im</w>
sk il
sk ele
side walls</w>
side walks</w>
si zes</w>
si ping</w>
show ered</w>
shoul dered</w>
shou t</w>
sharp en</w>
sh rin
sh ka</w>
sh e</w>
sh atter</w>
sev enti
seventi es</w>
ses sions</w>
sedu ction</w>
secu rely</w>
sear ch</w>
scrunchi e</w>
scrun ching</w>
scrun ches</w>
scribb led</w>
sc rib
sc ream</w>
sc o</w>
sc atters</w>
sc attering</w>
sa ils</w>
sa iling</w>
sa il</w>
s ound</w>
s ite</w>
s it
s ever
s even</w>
s enti
s en</w>
ru le</w>
ru b</w>
ro sett
ro pes</w>
ro le</w>
ro de
ro cks</w>
rin kling</w>
ri pping</w>
ri ot
ri llic</w>
revolu tionary</w>
revi val</w>
revers ing</w>
resul t</w>
restra int</w>
respon si
represen ting</w>
ren dering</w>
rema ining</w>
reinterpre ted</w>
rein vented</w>
reimagin es</w>
regi on</w>
referenc es</w>
rectan gle</w>
rec i
rea listic</w>
re per
reper toire</w>
re generated</w>
re define</w>
re covered</w>
re ce
ravi shing</w>
rati o</w>
rain drop</w>
rac y</w>
ra spberry</w>
ra l
ral ph</w>
r hy
questi on</w>
qu ot
qu ent</w>
qu at
quat re
pur pose</w>
pur ples</w>
pur cha
purcha sed</w>
pun s</w>
pun ched</w>
pu sh
pu s</w>
pu mped</w>
pu cker</w>
protec tively</w>
pron ged</w>
promo tes</w>
promin ently</w>
promi ses</w>
pro ve</w>
pro p
pro cla
procla i
proclai ms</w>
pri med</w>
prett ies</w>
presen ts</w>
pre ss</w>
pre ps</w>
pre loved</w>
pre di
practi ces</w>
power net</w>
post man</w>
por tability</w>
poe try</w>
po lar
polar tec</w>
po d</w>
plu mage</w>
play er</w>
plat ing</w>
pin ks</w>
pin hole</w>
pil low</w>
pig ment</w>
piec ing</w>
pi er
perpendi cular</w>
perenni al</w>
per ry</w>
pen ter</w>
pe di
patch worked</w>
particu larly</w>
par ro
par is</w>
pain ts</w>
pain ter</w>
pack aged</w>
pack age</w>
pa la
pala zzo</w>
p our</w>
p o</w>
p ear</w>
overla pped</w>
oun ce</w>
ou r
ot t</w>
ot e</w>
or i</w>
or der
order ly</w>
or chi
orchi ds</w>
on line</w>
ob vious</w>
nostal gia</w>
nor th</w>
no vel</w>
night shirt</w>
ni e</w>
necess ity</w>
ne igh
neigh bor
nat ori</w>
nar row
na r</w>
na p</w>
na mix</w>
n est</w>
n anu
nanu shka</w>
n a</w>
mp tu</w>
mountain e
mountaine ering</w>
mou se</w>
moon light</w>
mon th</w>
mon arch</w>
mo ther
mo ro
mm est</w>
mm er
mix ing</w>
mir at
mirat ex</w>
mini ature</w>
min k</w>
mil der</w>
mid section</w>
micro stripes</w>
mi ckey</w>
mi cha
micha el</w>
mexic o</w>
meta ls</w>
meta l
metal work</w>
mer lot</w>
mem or
mel ting</w>
mel ange</w>
mc m</w>
max xam</w>
maui brilliant</w>
mascu line</w>
marve lous</w>
mar ries</w>
mar iner</w>
mar ches</w>
magnific ent</w>
ma sk</w>
ma gen
magen ta</w>
m pers</w>
m in</w>
m ble</w>
m at</w>
ly cr
lycr a</w>
love lier</w>
loo ser</w>
loo m</w>
long wing</w>
long ch
longch amp</w>
lon s</w>
lit er
liter ally</w>
lin g
lil ting</w>
li ze</w>
li t</w>
li gn
lign e</w>
li as</w>
leg acy</w>
lea ving</w>
lea vers</w>
lea thery</w>
le ering</w>
le an
label s</w>
l ness</w>
l friend</w>
l ers</w>
l ands</w>
kin ds</w>
kil ler</w>
khak is</w>
kee led</w>
k ors</w>
k i</w>
juxta poses</w>
joh n</w>
ja zzed</w>
ja son</w>
j our
iti ons</w>
it ten</w>
it in
itin er
irrever ent</w>
inv iting</w>
intersec t</w>
interrup ted</w>
interru pt</w>
intenti onal</w>
inten sely</w>
inno cence</w>
incorpor ate</w>
in vi
in structions</w>
in ser
in formation</w>
in do
indo ors</w>
in crease</w>
in age</w>
impro mptu</w>
impression ist</w>
impressi ve</w>
im perfect</w>
im per
i gn
i ge</w>
i de
ide a</w>
how ever</w>
horiz on</w>
hor ween</w>
hon or</w>
hon ey</w>
hol der</w>
ho ly</w>
highligh ter</w>
high s</w>
hi sto
hi ke</w>
hex ag
hem lines</w>
hea lthy</w>
hea ding</w>
he sive</w>
harmon y</w>
har le
ha rem</w>
h lias</w>
h ef
hef ty</w>
h ard
h ang
hang outs</w>
guss ets</w>
guss eted</w>
guaran teed</w>
gri pping</w>
gri dding</w>
gre yscale</w>
gran ny</w>
gra vity</w>
gra cing</w>
gode ts</w>
glo ves</w>
glist ens</w>
gir lfriend</w>
gg est</w>
gen t
gar ç
g rows</w>
g ator</w>
g all
gall ery</w>
functi ons</w>
fu zzi</w>
fu se</w>
fro lic</w>
fresh ens</w>
found ational</w>
form alwear</w>
for tifies</w>
for ming</w>
foot beds</w>
flouri shing</w>
flir t</w>
fli ps</w>
fli pped</w>
fli ckers</w>
flash dry</w>
fil my</w>
fil a</w>
fi li
fi bre</w>
fear less</w>
fanci er</w>
fam ously</w>
fa mily</w>
fa ith</w>
f red</w>
f er</w>
f ans</w>
eye- textured</w>
explo sions</w>
explo sion</w>
exp ected</w>
exp and
expand able</w>
ex its</w>
ex ist
ex er
ex cur
ev eled</w>
et ch
est a</w>
es cap
er skin</w>
epito mizes</w>
ep ic</w>
envelo ps</w>
enhanc ement</w>
en th
elli ott</w>
eleph ant</w>
electro nic</w>
ela bor
elabor ate</w>
el lo</w>
el la</w>
el ing</w>
eg al</w>
echo ing</w>
ec ts</w>
ear ned</w>
ea d
e uro</w>
e con
econ yl</w>
dy lan</w>
du sting</w>
du st</w>
dry namix</w>
dro pping</w>
dri fts</w>
dri fting</w>
dre ssy</w>
dre ssier</w>
draw ing</w>
drag on</w>
dra inage</w>
don egal</w>
domin ating</w>
dollo ps</w>
distingui shing</w>
din ners</w>
diff uses</w>
design ers</w>
depen dable</w>
deni er</w>
defin itive</w>
decla re</w>
de w</w>
de erskin</w>
de but</w>
da hlias</w>
da bility</w>
d rusy</w>
d ge</w>
d ead
d b</w>
cylin der</w>
cy rillic</w>
cur sive</w>
cur rency</w>
culo ttes</w>
cu twork</w>
cu ter</w>
cu cin
cucin elli</w>
crosshat ched</w>
crea tive</w>
cra ckle</w>
coup led</w>
cor se
contra sted</w>
connec t</w>
conditi on</w>
concer t</w>
conc eal</w>
con centric</w>
compromi sing</w>
compri sed</w>
comple mented</w>
compan y</w>
commu ting</w>
comfor tech</w>
com poses</w>
com memor
com me</w>
colum nar</w>
colle ge</w>
co wrie</w>
co exist</w>
co co</w>
clou dlike</w>
cli mate</w>
cla sps</w>
cin chable</w>
ci sm</w>
christ mas</w>
chic est</w>
cher ries</w>
chem icals</w>
char mer</w>
char med</w>
ch er</w>
ch a</w>
carto on</w>
car penter</w>
car b
carb on</w>
can ine</w>
cam pus</w>
cali ber</w>
cal ming</w>
ca val
ca ught</w>
c le</w>
bul ky</w>
brushstro ked</w>
brun ello</w>
brow bar</w>
broad ening</w>
brigh ter</w>
bra id</w>
box ers</w>
bor rows</w>
bon us</w>
blur ry</w>
bir man</w>
bi ggest</w>
ber g</w>
bene fits</w>
ben gal</w>
ben ch
bem berg</w>
bear d</w>
bea ms</w>
be witching</w>
be stseller</w>
be es</w>
bb q</w>
ban ana</w>
ballo oned</w>
bagu ettes</w>
bad ge</w>
bac ter
bac king</w>
ba ker</w>
ba ir</w>
ba h
b lin
b eck</w>
b eat
az ure</w>
awa it</w>
autum n</w>
asymmetri c</w>
astro na
astro logical</w>
arre sting</w>
ara n</w>
ar cs</w>
aqu a</w>
aqu a
app reci
app o
ap r
anti reflective</w>
answ er</w>
ann i</w>
ann er</w>
anim ated</w>
anim als</w>
and re</w>
an ge
alli gator</w>
alex andre</w>
afri can</w>
ador ning</w>
adap ts</w>
ad mir
achiev ement</w>
accessori zing</w>
ab ounds</w>
a spec
a iri
9 5</w>
8 00</w>
20 19</w>
20 0g</w>
2 00</w>
1 3</w>
1 20s</w>
1 1
11 0s</w>
é lan</w>
è s</w>
zz es</w>
zi ppy</w>
zer land</w>
za p</w>
z ingly</w>
z hoo
zhoo shed</w>
z ero</w>
z ens</w>
youth ful</w>
yo h
yoh ji</w>
ya k</w>
y p
yp tic</w>
y ama
yama moto</w>
xi ro
xiro tex</w>
wr itten</w>
worl d
wor ries</w>
wood block</w>
winter ized</w>
windowpan es</w>
wind wall</w>
win some</w>
widen ing</w>
wi les</w>
who le
whisp ers</w>
whisp ered</w>
whi ps</w>
whi p</w>
wel comes</w>
weigh tless</w>
week days</w>
weather ford</w>
weather -
water colors</w>
warm est</w>
war ri
warri or</w>
war ds</w>
wall paper</w>
walk about</w>
walk ability</w>
wa xes</w>
wa ke</w>
wa it</w>
wa ft</w>
w ter</w>
w rinkling</w>
w ling</w>
w ess</w>
w ander</w>
w an
volu mes</w>
vo ice</w>
visi onary</w>
vir gi
virgi l</w>
vin ta
vin ce</w>
victo ri
vibr ancy</w>
vi sibility</w>
vi le
vile bre
vilebre quin</w>
vers a</w>
ver ed</w>
ventil ate</w>
venti ve</w>
vel ty</w>
vari ed</w>
vari able</w>
v seat</w>
v oom</w>
v et</w>
v ca</w>
v an
usi a
us í</w>
ura liz
uraliz er</w>
ur ity</w>
upd ating</w>
up holds</w>
unmista kably</w>
unmi ss
unmiss able</w>
uni on</w>
undersco ring</w>
under shirt</w>
under lines</w>
under layer</w>
under goes</w>
unc lu
unclu ttered</w>
un tamed</w>
un ro</w>
un ra
unra vel
un predi
unpredi ctable</w>
un ite</w>
un buttoned</w>
ultra slim</w>
ultra chic</w>
ul ate</w>
u ts</w>
u scu
uscu le</w>
u re
ure than
urethan e</w>
u e</w>
u d</w>
ty pe
twin es</w>
tw ang</w>
turi es</w>
tun e</w>
tun a</w>
tumb les</w>
tru st</w>
trop ically</w>
tro politan</w>
tribu tes</w>
tri p
tri ck</w>
tre use</w>
tre k
trek king</w>
trav ele
travele r</w>
transc ends</w>
tra iner</w>
tra c
trac eable</w>
tr ying</w>
tr ated</w>
tow ns</w>
tough est</w>
tough ens</w>
top ic</w>
to x
to wards</w>
to ssing</w>
tin se
tinse l</w>
tin ge</w>
tin ga
tinga le</w>
timber dry</w>
ti z</w>
ti va</w>
ti le
tile vered</w>
ti l
ti gh
ti cism</w>
ti bi</w>
throw s</w>
th inner</w>
text uri
text urally</w>
ter ry
terry cloth</w>
ter rit
territ ory</w>
ter rif
ten ess</w>
temp tingly</w>
tel ls</w>
tel l
tell tale</w>
tech no</w>
te k</w>
te en
teen y</w>
tat too</w>
tar gets</w>
ta mes</w>
ta cking</w>
ta bi</w>
t n
t l</w>
t j
tj m</w>
t ity</w>
t ines</w>
t ear</w>
symboli zes</w>
symbo l</w>
swit zerland</w>
swit ched</w>
swat ches</w>
suspen ders</w>
sure fire</w>
sur rounds</w>
super sweet</w>
super star</w>
super slim</w>
super high</w>
sun ning</w>
sun burst</w>
summ on</w>
suit ed</w>
sue de
suede tec</w>
sub i</w>
sub du
subdu ed</w>
su dden</w>
su c
su ap
suap el</w>
stro bel</w>
strea ky</w>
stone wash</w>
sto wed</w>
sto w</w>
sto cked</w>
stipp led</w>
sti ff</w>
stea lthy</w>
ste in</w>
stat ic</w>
stat ely</w>
star ring</w>
stal king</w>
stack ing</w>
sta ud</w>
sta res</w>
st r
st ir
stir ru
st fee
stfee ding</w>
st enc
stenc iled</w>
st eer</w>
st eals</w>
st ace</w>
st a</w>
ssion ate</w>
ssi ons</w>
ss o</w>
squi gg
squa rely</w>
squ e</w>
sprou ting</w>
spon taneously</w>
spon gy</w>
spo il</w>
splendi d</w>
spl its</w>
spir its</w>
spi rals</w>
spi ked</w>
spher es</w>
spec ta
span de
spande x</w>
sp unk</w>
sp ru
sp ring
sp ra
sp ite</w>
sp ill</w>
sp iced</w>
sp here</w>
sp ee
spee d
speed wick</w>
sp ea
sp attered</w>
sou thern</w>
soo thing</w>
solita ire</w>
soa ked</w>
so on</w>
so mber</w>
so led</w>
so cc
socc er</w>
so ar</w>
snu b</w>
sni p</w>
sna king</w>
smal lest</w>
sm ic</w>
slin gs</w>
sli vers</w>
sli mmest</w>
sli ke</w>
sli ding</w>
sli des</w>
sli ces</w>
sli ced</w>
sle n
slen der
slender est</w>
sla m</w>
skil led</w>
ski p
skip jac
skipjac k</w>
sket ch</w>
sket ch
sketch book</w>
skate boar
